// INT8 TFLite Model Data for Raspberry Pi Pico (Quantized)
// Model Name: pico_locator_int8.tflite
// Size: 35688 bytes

const unsigned char g_model_int8[] = {
  0x20, 0x00, 0x00, 0x00, 0x54, 0x46, 0x4c, 0x33, 0x00, 0x00, 0x00, 0x00, 0x14, 0x00, 0x20, 0x00, 0x1c, 0x00, 0x18, 0x00, 0x14, 0x00, 0x10, 0x00, 0x0c, 0x00, 0x00, 0x00, 0x08, 0x00, 0x04, 0x00, 0x14, 0x00, 0x00, 0x00, 0x1c, 0x00, 0x00, 0x00, 0x8c, 0x00, 0x00, 0x00, 0xe4, 0x00, 0x00, 0x00, 0x2c, 0x69, 0x00, 0x00, 0x3c, 0x69, 0x00, 0x00, 0x90, 0x8a, 0x00, 0x00, 0x03, 0x00, 0x00, 0x00, 0x01, 0x00, 0x00, 0x00, 0x04, 0x00, 0x00, 0x00, 0x5e, 0x96, 0xff, 0xff, 0x0c, 0x00, 0x00, 0x00, 0x1c, 0x00, 0x00, 0x00, 0x3c, 0x00, 0x00, 0x00, 0x0f, 0x00, 0x00, 0x00, 0x73, 0x65, 0x72, 0x76, 0x69, 0x6e, 0x67, 0x5f, 0x64, 0x65, 0x66, 0x61, 0x75, 0x6c, 0x74, 0x00, 0x01, 0x00, 0x00, 0x00, 0x04, 0x00, 0x00, 0x00, 0x90, 0xff, 0xff, 0xff, 0x19, 0x00, 0x00, 0x00, 0x04, 0x00, 0x00, 0x00, 0x08, 0x00, 0x00, 0x00, 0x6f, 0x75, 0x74, 0x70, 0x75, 0x74, 0x5f, 0x30, 0x00, 0x00, 0x00, 0x00, 0x01, 0x00, 0x00, 0x00, 0x04, 0x00, 0x00, 0x00, 0x3a, 0x94, 0xff, 0xff, 0x04, 0x00, 0x00, 0x00, 0x0e, 0x00, 0x00, 0x00, 0x69, 0x6e, 0x70, 0x75, 0x74, 0x5f, 0x6c, 0x61, 0x79, 0x65, 0x72, 0x5f, 0x33, 0x36, 0x00, 0x00, 0x02, 0x00, 0x00, 0x00, 0x34, 0x00, 0x00, 0x00, 0x04, 0x00, 0x00, 0x00, 0xdc, 0xff, 0xff, 0xff, 0x1c, 0x00, 0x00, 0x00, 0x04, 0x00, 0x00, 0x00, 0x13, 0x00, 0x00, 0x00, 0x43, 0x4f, 0x4e, 0x56, 0x45, 0x52, 0x53, 0x49, 0x4f, 0x4e, 0x5f, 0x4d, 0x45, 0x54, 0x41, 0x44, 0x41, 0x54, 0x41, 0x00, 0x08, 0x00, 0x0c, 0x00, 0x08, 0x00, 0x04, 0x00, 0x08, 0x00, 0x00, 0x00, 0x1b, 0x00, 0x00, 0x00, 0x04, 0x00, 0x00, 0x00, 0x13, 0x00, 0x00, 0x00, 0x6d, 0x69, 0x6e, 0x5f, 0x72, 0x75, 0x6e, 0x74, 0x69, 0x6d, 0x65, 0x5f, 0x76, 0x65, 0x72, 0x73, 0x69, 0x6f, 0x6e, 0x00, 0x1d, 0x00, 0x00, 0x00, 0x44, 0x68, 0x00, 0x00, 0x3c, 0x68, 0x00, 0x00, 0x24, 0x68, 0x00, 0x00, 0x04, 0x68, 0x00, 0x00, 0x74, 0x67, 0x00, 0x00, 0xe4, 0x66, 0x00, 0x00, 0xd4, 0x5e, 0x00, 0x00, 0xc4, 0x5d, 0x00, 0x00, 0xb4, 0x15, 0x00, 0x00, 0x24, 0x15, 0x00, 0x00, 0x14, 0x03, 0x00, 0x00, 0xc4, 0x02, 0x00, 0x00, 0x04, 0x01, 0x00, 0x00, 0xfc, 0x00, 0x00, 0x00, 0xf4, 0x00, 0x00, 0x00, 0xec, 0x00, 0x00, 0x00, 0xe4, 0x00, 0x00, 0x00, 0xdc, 0x00, 0x00, 0x00, 0xd4, 0x00, 0x00, 0x00, 0xcc, 0x00, 0x00, 0x00, 0xc4, 0x00, 0x00, 0x00, 0xbc, 0x00, 0x00, 0x00, 0xb4, 0x00, 0x00, 0x00, 0xac, 0x00, 0x00, 0x00, 0xa4, 0x00, 0x00, 0x00, 0x9c, 0x00, 0x00, 0x00, 0x94, 0x00, 0x00, 0x00, 0x74, 0x00, 0x00, 0x00, 0x04, 0x00, 0x00, 0x00, 0x2a, 0x95, 0xff, 0xff, 0x04, 0x00, 0x00, 0x00, 0x60, 0x00, 0x00, 0x00, 0x0c, 0x00, 0x00, 0x00, 0x08, 0x00, 0x0e, 0x00, 0x08, 0x00, 0x04, 0x00, 0x08, 0x00, 0x00, 0x00, 0x10, 0x00, 0x00, 0x00, 0x28, 0x00, 0x00, 0x00, 0x00, 0x00, 0x06, 0x00, 0x08, 0x00, 0x04, 0x00, 0x06, 0x00, 0x00, 0x00, 0x04, 0x00, 0x00, 0x00, 0x01, 0x00, 0x00, 0x00, 0xeb, 0x03, 0x00, 0x00, 0x0c, 0x00, 0x18, 0x00, 0x14, 0x00, 0x10, 0x00, 0x0c, 0x00, 0x04, 0x00, 0x0c, 0x00, 0x00, 0x00, 0x56, 0xdf, 0x07, 0x86, 0xa5, 0x95, 0x41, 0xe5, 0x02, 0x00, 0x00, 0x00, 0x02, 0x00, 0x00, 0x00, 0x04, 0x00, 0x00, 0x00, 0x06, 0x00, 0x00, 0x00, 0x32, 0x2e, 0x32, 0x30, 0x2e, 0x30, 0x00, 0x00, 0x96, 0x95, 0xff, 0xff, 0x04, 0x00, 0x00, 0x00, 0x10, 0x00, 0x00, 0x00, 0x31, 0x2e, 0x31, 0x34, 0x2e, 0x30, 0x00, 0x00, 0x00, 0x00, 0x00, 0x00, 0x00, 0x00, 0x00, 0x00, 0x8c, 0x77, 0xff, 0xff, 0x90, 0x77, 0xff, 0xff, 0x94, 0x77, 0xff, 0xff, 0x98, 0x77, 0xff, 0xff, 0x9c, 0x77, 0xff, 0xff, 0xa0, 0x77, 0xff, 0xff, 0xa4, 0x77, 0xff, 0xff, 0xa8, 0x77, 0xff, 0xff, 0xac, 0x77, 0xff, 0xff, 0xb0, 0x77, 0xff, 0xff, 0xb4, 0x77, 0xff, 0xff, 0xb8, 0x77, 0xff, 0xff, 0xbc, 0x77, 0xff, 0xff, 0xc0, 0x77, 0xff, 0xff, 0xea, 0x95, 0xff, 0xff, 0x04, 0x00, 0x00, 0x00, 0xb0, 0x01, 0x00, 0x00, 0x81, 0x0c, 0xdc, 0xba, 0xe4, 0x57, 0x71, 0x17, 0x1f, 0x09, 0xa5, 0xc6, 0xdf, 0xfc, 0xc2, 0x0c, 0x6e, 0x9f, 0xb7, 0xe7, 0x1e, 0x37, 0x45, 0x0d, 0x38, 0xf5, 0x66, 0xfa, 0x79, 0xb9, 0x90, 0x2f, 0xce, 0x6e, 0x3c, 0x0a, 0x83, 0xcb, 0xbb, 0xc2, 0xbf, 0x6c, 0x5c, 0xd8, 0x1e, 0xfd, 0x62, 0xed, 0xc1, 0x7f, 0xee, 0x04, 0x9b, 0x3f, 0x08, 0xe9, 0x15, 0xe9, 0x81, 0xd2, 0x35, 0x53, 0x5c, 0x3a, 0x41, 0xce, 0x22, 0xa1, 0xd0, 0xb6, 0x63, 0xd3, 0xf4, 0x78, 0xd7, 0xec, 0xa5, 0x46, 0xfb, 0xbb, 0x0c, 0xf1, 0x81, 0x6b, 0x78, 0x46, 0x42, 0xf0, 0x29, 0xf8, 0x39, 0xc2, 0xd4, 0x1c, 0xd8, 0x3d, 0x4a, 0x64, 0x2f, 0xbe, 0x87, 0xc3, 0xdb, 0x12, 0xd9, 0xc6, 0x23, 0xb1, 0xfe, 0xdd, 0xe6, 0x76, 0x45, 0xd9, 0xff, 0xcb, 0x6b, 0xde, 0x3c, 0xad, 0x7f, 0x1e, 0xd2, 0x3d, 0xab, 0x00, 0xe6, 0xdb, 0xae, 0x2d, 0x2c, 0x4b, 0xfd, 0x2d, 0xc9, 0x14, 0x37, 0xa4, 0x5a, 0x06, 0x03, 0x48, 0xaa, 0x7f, 0xdb, 0xf2, 0x23, 0xb8, 0x1c, 0x0b, 0xf6, 0x3b, 0x37, 0xd2, 0x6d, 0xc0, 0xa8, 0xc2, 0x42, 0x36, 0xa5, 0x71, 0x16, 0x31, 0x21, 0xbe, 0xba, 0x6a, 0xc4, 0x73, 0x09, 0x2f, 0x35, 0x11, 0x00, 0x7f, 0x10, 0xa8, 0xd8, 0x6f, 0x5f, 0x2a, 0x72, 0xa9, 0xbc, 0x0b, 0xe3, 0xc3, 0x79, 0x21, 0x76, 0xc7, 0xc5, 0xe1, 0x13, 0x5c, 0xda, 0x08, 0xb4, 0x0c, 0xd0, 0x8e, 0xc1, 0x48, 0x7f, 0x9f, 0x04, 0xc7, 0x48, 0xe2, 0xcd, 0xc2, 0x1e, 0x73, 0x4b, 0x1e, 0x08, 0xea, 0x3d, 0xd0, 0x58, 0xf6, 0x81, 0xc8, 0xad, 0xf7, 0x55, 0xe3, 0x35, 0xfb, 0x2c, 0x1c, 0x06, 0xde, 0x60, 0xd6, 0x6b, 0x56, 0x4a, 0xe8, 0xd5, 0x8e, 0x96, 0x90, 0x30, 0xc9, 0x5f, 0x62, 0x5d, 0x38, 0x8a, 0xfd, 0xee, 0xb0, 0xe1, 0x61, 0x4c, 0x51, 0x3f, 0x08, 0x40, 0xa8, 0xae, 0x81, 0x0b, 0x22, 0x19, 0xf7, 0xc8, 0xbd, 0xa2, 0xf8, 0xd8, 0x4a, 0xdc, 0x7f, 0x37, 0xb4, 0x3a, 0xd0, 0x5f, 0xeb, 0x39, 0xfb, 0xdc, 0xa9, 0x3e, 0x19, 0xcd, 0x4e, 0x56, 0x0e, 0x68, 0x69, 0xf1, 0xc7, 0x00, 0xd4, 0x7f, 0xdd, 0xfe, 0xc8, 0x55, 0x8d, 0x63, 0xe9, 0xe5, 0xcf, 0x0d, 0xf6, 0x00, 0x50, 0xc0, 0x0a, 0xb6, 0xf4, 0x07, 0xb5, 0x00, 0x3c, 0xfc, 0xd1, 0x27, 0xf1, 0x44, 0xe4, 0x27, 0x07, 0xc3, 0xe4, 0x1f, 0xa9, 0xe0, 0x8d, 0x73, 0xdd, 0x46, 0x7f, 0x28, 0xb2, 0x8b, 0x18, 0xd3, 0x48, 0xf6, 0xcd, 0x26, 0xcb, 0x4e, 0xe6, 0x3e, 0xca, 0x22, 0x7f, 0x5e, 0x97, 0xe3, 0xbf, 0x3e, 0xf1, 0x65, 0x22, 0x06, 0xc2, 0x3c, 0xa2, 0x4b, 0xca, 0xdf, 0x69, 0xa7, 0x64, 0xc1, 0xc9, 0xfe, 0xe0, 0x33, 0xc1, 0x2e, 0x37, 0xf8, 0x26, 0xa1, 0x72, 0xc3, 0xcb, 0xd8, 0xf1, 0xfa, 0x5b, 0x15, 0xcc, 0x35, 0xcd, 0xe5, 0x81, 0x59, 0xf1, 0x91, 0x29, 0xab, 0xa1, 0x12, 0xe8, 0xe4, 0xfd, 0xaf, 0x51, 0x23, 0xb0, 0xeb, 0x3f, 0x49, 0xd4, 0x47, 0x1d, 0xc6, 0x9c, 0x81, 0xf5, 0x5a, 0x55, 0x38, 0xf9, 0xe8, 0xe5, 0xc0, 0xfd, 0x1b, 0xfe, 0x38, 0xcb, 0xa6, 0x97, 0xff, 0xff, 0x04, 0x00, 0x00, 0x00, 0x40, 0x00, 0x00, 0x00, 0x3e, 0x02, 0x00, 0x00, 0xfe, 0xf1, 0xff, 0xff, 0x39, 0x08, 0x00, 0x00, 0xdf, 0x01, 0x00, 0x00, 0x16, 0x7b, 0xff, 0xff, 0x35, 0x04, 0x00, 0x00, 0x8a, 0x03, 0x00, 0x00, 0x2f, 0x08, 0x00, 0x00, 0x47, 0xe4, 0xff, 0xff, 0x1d, 0xf7, 0xff, 0xff, 0x55, 0xe2, 0xff, 0xff, 0x06, 0x1a, 0x00, 0x00, 0xf8, 0xfe, 0xff, 0xff, 0xd0, 0xed, 0xff, 0xff, 0x82, 0x48, 0x00, 0x00, 0x87, 0xfa, 0xff, 0xff, 0xf2, 0x97, 0xff, 0xff, 0x04, 0x00, 0x00, 0x00, 0x00, 0x12, 0x00, 0x00, 0x06, 0xef, 0x11, 0x2c, 0x11, 0x04, 0xdd, 0x98, 0x3f, 0xdd, 0x1b, 0xaa, 0xf0, 0x63, 0xc6, 0x2f, 0xda, 0x40, 0x0d, 0xc8, 0x1d, 0x12, 0x05, 0xfc, 0x0d, 0xf7, 0xf3, 0x08, 0x6e, 0x01, 0xc3, 0xf9, 0xd7, 0x0e, 0x20, 0xdb, 0xcb, 0xde, 0x39, 0x6e, 0xf4, 0x81, 0xfe, 0xcc, 0x4a, 0xaa, 0x1e, 0xf6, 0x16, 0xba, 0xc1, 0xc7, 0xd9, 0x2b, 0xf9, 0xcc, 0xfe, 0xc4, 0x02, 0x9e, 0xfb, 0xcd, 0xd6, 0xe7, 0xbc, 0xe7, 0x25, 0xe3, 0x49, 0xed, 0x34, 0xfb, 0xf0, 0xf2, 0xdb, 0xdf, 0xdf, 0x16, 0x23, 0xb0, 0xa6, 0xf7, 0x33, 0xbf, 0xe7, 0x06, 0x4d, 0x25, 0x32, 0x87, 0xd9, 0x23, 0x52, 0xeb, 0x01, 0x38, 0x30, 0xd5, 0xfa, 0x28, 0x03, 0xf3, 0x0e, 0xae, 0x6b, 0x0d, 0xde, 0xf3, 0xcb, 0x65, 0xf4, 0xef, 0x01, 0x2e, 0x7b, 0x8e, 0xf7, 0x1f, 0x42, 0xcd, 0x00, 0xb4, 0x38, 0xd3, 0x1d, 0x05, 0x4b, 0xc4, 0xa6, 0x45, 0x3a, 0xbb, 0xa9, 0x1f, 0x31, 0x2d, 0xe6, 0xfd, 0xc8, 0x5c, 0x03, 0xe7, 0xf8, 0xf3, 0xdf, 0x2a, 0xff, 0x30, 0xf2, 0x39, 0x04, 0x8c, 0x23, 0xff, 0xdb, 0x50, 0x03, 0xcb, 0xa7, 0x3d, 0xa3, 0xe4, 0xe1, 0x8d, 0x0e, 0xc5, 0x49, 0xa8, 0x41, 0xf5, 0xe7, 0xbe, 0x2b, 0xca, 0xc2, 0xf8, 0xc2, 0x02, 0x63, 0x9e, 0x06, 0xfb, 0x3f, 0xeb, 0x1c, 0x3d, 0x15, 0xde, 0x1b, 0x31, 0x15, 0xea, 0x3d, 0xc5, 0x0f, 0x61, 0x5e, 0xcb, 0xe3, 0xfb, 0x21, 0x8e, 0x4f, 0x55, 0xb7, 0x67, 0x17, 0x0e, 0xb6, 0xf4, 0x03, 0xfc, 0x02, 0x21, 0xca, 0x9c, 0x40, 0xbe, 0x1f, 0x14, 0xee, 0xc4, 0x49, 0xa7, 0xe7, 0x35, 0xfa, 0xde, 0x09, 0x1f, 0x14, 0x6b, 0xc2, 0xbb, 0xe0, 0x57, 0x36, 0xa0, 0x6d, 0xfc, 0x1e, 0x1f, 0x2e, 0x13, 0x32, 0xe9, 0x2a, 0xe0, 0x78, 0xbc, 0x58, 0xef, 0xca, 0xdb, 0x93, 0x2b, 0xab, 0x50, 0x2f, 0x81, 0x0a, 0xac, 0x14, 0xde, 0xf4, 0xc7, 0x2c, 0x3b, 0x2f, 0xc7, 0xf8, 0x84, 0x3d, 0xe5, 0x30, 0xa8, 0xbd, 0x01, 0x56, 0x0f, 0xf5, 0xde, 0x02, 0x0c, 0x6d, 0x99, 0x21, 0xd6, 0x81, 0xc7, 0x48, 0xe6, 0xf7, 0xfa, 0xed, 0xfe, 0x06, 0x03, 0xf1, 0x0e, 0x2b, 0x21, 0x10, 0x1c, 0xf0, 0xee, 0xed, 0x0c, 0xd1, 0x23, 0x2a, 0x0b, 0x0a, 0xf5, 0x0a, 0xd3, 0xf1, 0x0d, 0xf7, 0xc4, 0x1c, 0x2c, 0xe0, 0xd8, 0x09, 0xeb, 0xcc, 0x35, 0x21, 0xc7, 0xd3, 0x01, 0x0d, 0xe8, 0x08, 0x01, 0xae, 0xe9, 0x15, 0xed, 0x21, 0x28, 0x07, 0xf2, 0x0b, 0x55, 0x4a, 0xf6, 0x28, 0xc2, 0xf1, 0x2d, 0xfd, 0xe3, 0x14, 0xdf, 0xf9, 0x10, 0xdc, 0xeb, 0x2d, 0x05, 0x3f, 0x26, 0xed, 0x14, 0xe9, 0x05, 0x2b, 0xdc, 0xbb, 0xe8, 0x02, 0xca, 0xeb, 0xcf, 0xf5, 0xe4, 0xcb, 0x00, 0x02, 0x2d, 0x35, 0xc1, 0x97, 0x02, 0x1c, 0xd4, 0x3a, 0xfe, 0xeb, 0xf7, 0xde, 0x14, 0x3b, 0x16, 0xd6, 0xe2, 0xe1, 0x19, 0xd0, 0xf4, 0x3b, 0xe7, 0xda, 0x11, 0xfc, 0x1b, 0x21, 0xe7, 0x22, 0x09, 0x52, 0x0a, 0x04, 0xcd, 0xd8, 0xe7, 0x06, 0xe3, 0xbd, 0xe5, 0x07, 0xe9, 0xdf, 0x16, 0x2a, 0x2f, 0xce, 0x40, 0x26, 0xe9, 0x10, 0x4e, 0xb5, 0x7f, 0x10, 0x6e, 0x0c, 0xa2, 0xc4, 0x65, 0x1e, 0xe0, 0x25, 0x9f, 0x36, 0xb4, 0xcd, 0x57, 0xeb, 0x12, 0x1b, 0x2b, 0xf4, 0xff, 0xef, 0x71, 0x17, 0x56, 0x67, 0x97, 0xc1, 0x0a, 0xe9, 0xd2, 0x1b, 0x06, 0xee, 0x9c, 0xba, 0xf9, 0xcf, 0x9c, 0xac, 0x42, 0x71, 0x51, 0x35, 0x65, 0x01, 0x08, 0xa4, 0x5c, 0xd5, 0x78, 0x0e, 0xf3, 0x3c, 0x6e, 0x47, 0x4f, 0x14, 0xd8, 0x15, 0xe2, 0xd0, 0x4a, 0xfb, 0x18, 0x45, 0x62, 0xec, 0xfa, 0xfb, 0x3f, 0x12, 0xea, 0xdf, 0xe3, 0xdb, 0xf4, 0xcb, 0x4f, 0xf7, 0xe6, 0xbd, 0xaa, 0x1d, 0xf0, 0x17, 0xfc, 0x08, 0xad, 0xf3, 0x6a, 0x38, 0x7b, 0x47, 0x26, 0xfb, 0xd5, 0x45, 0x49, 0x64, 0xcf, 0xc0, 0x2d, 0x15, 0xec, 0x13, 0xba, 0x03, 0xf7, 0x5b, 0x5a, 0x2a, 0xd9, 0xbc, 0x61, 0xc5, 0x56, 0x03, 0x61, 0xbe, 0x0d, 0x32, 0x01, 0x3e, 0xaf, 0xed, 0x21, 0x0e, 0xdc, 0x0b, 0xb9, 0x37, 0xfc, 0xee, 0xf6, 0x13, 0xe8, 0xe3, 0x23, 0xc4, 0xd0, 0xee, 0x11, 0xee, 0x28, 0xfd, 0x11, 0xf1, 0xd6, 0xe7, 0xf7, 0xe4, 0xe6, 0xa9, 0x1a, 0xf9, 0xfb, 0xf3, 0x25, 0xf5, 0xe3, 0x07, 0x07, 0xed, 0x0a, 0x0c, 0x1d, 0x37, 0x0d, 0x0a, 0xe6, 0xd5, 0xad, 0x23, 0xf6, 0x18, 0x28, 0xfa, 0xe0, 0xed, 0xfa, 0x10, 0xe0, 0xe5, 0xc4, 0x3a, 0xd4, 0x24, 0x12, 0x16, 0xdb, 0xe8, 0xfe, 0xde, 0x2a, 0x13, 0x0d, 0xe1, 0xe8, 0x29, 0x2b, 0xd0, 0x03, 0x01, 0x22, 0xbb, 0xd9, 0x0e, 0x1f, 0xef, 0x10, 0x13, 0xff, 0xdd, 0x09, 0x17, 0xe4, 0x53, 0x2c, 0x29, 0x0a, 0x0e, 0xbf, 0x25, 0xfd, 0xe2, 0xcb, 0xcc, 0x0f, 0x22, 0xf3, 0xea, 0x01, 0x57, 0x05, 0x14, 0x19, 0x12, 0x10, 0x13, 0x24, 0xe4, 0xda, 0xe3, 0xf7, 0xd5, 0x03, 0xfd, 0x2f, 0x81, 0xde, 0xf8, 0x18, 0xd6, 0x23, 0xdb, 0xd6, 0x18, 0xfd, 0x0c, 0xee, 0xd8, 0x1f, 0x04, 0xf5, 0x4c, 0x28, 0xe3, 0xf1, 0xe5, 0xba, 0x10, 0x38, 0x2b, 0x0f, 0x0f, 0x24, 0xdd, 0xf2, 0x06, 0x07, 0x0a, 0x04, 0x19, 0xfa, 0x03, 0x2f, 0x2e, 0xee, 0x2c, 0x49, 0x16, 0xde, 0x08, 0xde, 0xde, 0x13, 0x51, 0xbf, 0xf1, 0xee, 0x09, 0xfc, 0x57, 0xb5, 0x12, 0xec, 0x35, 0x03, 0x4d, 0x1a, 0x1e, 0x20, 0x17, 0x33, 0xc9, 0xe0, 0x25, 0xb3, 0x2f, 0xee, 0xb6, 0xd1, 0x30, 0x15, 0xd6, 0xa5, 0xd4, 0xfb, 0xda, 0xb6, 0x52, 0x11, 0xd1, 0xc9, 0x3a, 0x4e, 0x28, 0x49, 0x56, 0x20, 0x3b, 0xd5, 0xb6, 0xfe, 0x55, 0xb9, 0x17, 0x2e, 0x9e, 0xa2, 0xfe, 0xc0, 0x4d, 0xe2, 0x3b, 0xea, 0x36, 0x4a, 0x43, 0xec, 0xe4, 0x28, 0xf3, 0xc8, 0xd5, 0xe7, 0x50, 0xbe, 0xc8, 0xde, 0x3e, 0xe1, 0xfc, 0xce, 0x11, 0xd6, 0x00, 0x27, 0x2c, 0xee, 0x41, 0x30, 0xd7, 0xf7, 0xe1, 0xd2, 0x09, 0xd4, 0x46, 0x40, 0xe1, 0x3e, 0x0e, 0x14, 0xcc, 0x3e, 0xdb, 0xff, 0xfe, 0xde, 0x2f, 0x08, 0x5a, 0xae, 0x21, 0x42, 0x06, 0x35, 0xc7, 0x52, 0x0a, 0x25, 0x04, 0x27, 0x22, 0xd4, 0xdb, 0x1e, 0x0a, 0x27, 0x39, 0xbb, 0x21, 0x10, 0x74, 0xe1, 0x7f, 0xca, 0xdc, 0x04, 0x4a, 0xd4, 0x12, 0x24, 0x0a, 0x0c, 0x23, 0xcf, 0x3a, 0x1d, 0x1e, 0xf0, 0x3b, 0x17, 0xd6, 0x24, 0x07, 0xeb, 0x24, 0x2e, 0xd4, 0x01, 0xf4, 0xc3, 0xef, 0xf9, 0x22, 0xd0, 0x0b, 0x35, 0x44, 0x08, 0xa1, 0xfe, 0xf8, 0x30, 0x1d, 0x44, 0xdd, 0x16, 0x1a, 0xf7, 0x7f, 0xc9, 0x1b, 0xa3, 0xb9, 0x61, 0x51, 0x17, 0x14, 0x39, 0x1f, 0x28, 0x26, 0xb9, 0x09, 0xe4, 0x01, 0x06, 0x16, 0xc4, 0xf2, 0x05, 0xec, 0x1d, 0xf9, 0x08, 0x07, 0x31, 0x21, 0x1f, 0xe3, 0xe3, 0x30, 0x3a, 0x45, 0xdb, 0x4a, 0x51, 0xeb, 0x18, 0xcc, 0x4b, 0x1e, 0x42, 0xc0, 0x48, 0xfa, 0xfa, 0x16, 0x9e, 0x3e, 0xb3, 0x04, 0x01, 0x3c, 0xbb, 0x19, 0x20, 0xfa, 0x4f, 0x03, 0xfd, 0xec, 0x04, 0x39, 0xf7, 0xec, 0xdd, 0xed, 0x04, 0xd8, 0xd9, 0xef, 0xe0, 0xf5, 0xf9, 0xfb, 0xf6, 0xdd, 0xdb, 0x44, 0x27, 0xfb, 0x1a, 0xf0, 0xe7, 0xfb, 0xef, 0x24, 0x12, 0x10, 0x1f, 0xc4, 0x3c, 0xc2, 0xb8, 0x0f, 0xff, 0x37, 0x22, 0xce, 0x07, 0x0a, 0x62, 0x0f, 0xe5, 0x34, 0xc4, 0x16, 0x82, 0x41, 0xfb, 0xc1, 0x5e, 0xf3, 0xe9, 0x0c, 0x06, 0x32, 0xc0, 0x02, 0x44, 0x2d, 0x0e, 0x1d, 0xbe, 0xc9, 0x08, 0x48, 0xb2, 0x2e, 0x3b, 0x02, 0x21, 0x00, 0x44, 0x14, 0xbe, 0x0b, 0x66, 0x1d, 0xba, 0x36, 0x4b, 0xd4, 0x1a, 0x23, 0xe9, 0x1f, 0x9d, 0x41, 0x3e, 0xfb, 0xdc, 0xf2, 0x05, 0x47, 0x81, 0xfb, 0x28, 0x09, 0x4f, 0xea, 0x58, 0x1f, 0x19, 0xff, 0xdc, 0xfe, 0x22, 0x13, 0xf9, 0x2b, 0xf9, 0xe1, 0x02, 0x12, 0xcc, 0xc7, 0xde, 0x58, 0x3a, 0xd9, 0x34, 0x2b, 0xc2, 0x1c, 0xce, 0x28, 0xc3, 0xfa, 0x5a, 0xd6, 0x35, 0xf3, 0xcf, 0xe1, 0x9a, 0x1c, 0x14, 0xc9, 0xac, 0x47, 0x49, 0xef, 0xa9, 0xed, 0xe2, 0xee, 0xca, 0x0c, 0x45, 0xc9, 0x19, 0x4e, 0xec, 0x10, 0x43, 0x12, 0x38, 0x15, 0xbe, 0x2a, 0x31, 0xf7, 0xaf, 0xbe, 0x10, 0x2e, 0x32, 0x47, 0xe9, 0xb9, 0x3e, 0x0c, 0xf3, 0x23, 0x0b, 0xf1, 0x25, 0xe5, 0x54, 0xec, 0xdd, 0xa9, 0xd9, 0xce, 0xd3, 0xea, 0x05, 0xa1, 0xa9, 0xbb, 0xfd, 0x02, 0xe0, 0xa6, 0xb4, 0xd9, 0x08, 0xd5, 0x21, 0x38, 0xf0, 0xf1, 0xe3, 0x19, 0x3d, 0xf6, 0x19, 0x0d, 0x07, 0x27, 0xb2, 0x2c, 0xf9, 0x0e, 0xed, 0xf1, 0xb7, 0x0a, 0x22, 0xe4, 0x46, 0x89, 0x30, 0x23, 0xbc, 0x7f, 0xfa, 0xc8, 0xed, 0xbc, 0xcd, 0x53, 0x11, 0x25, 0xca, 0xbc, 0xb6, 0xef, 0x23, 0xc1, 0x0b, 0xad, 0xe1, 0x1b, 0xe9, 0x33, 0x29, 0xd1, 0x35, 0x1d, 0x64, 0x3f, 0x64, 0x29, 0x23, 0x12, 0xfe, 0xb9, 0x95, 0xcb, 0xc6, 0x24, 0x34, 0xf1, 0x2f, 0xbb, 0x63, 0x44, 0x2c, 0xef, 0x20, 0xd7, 0x11, 0xf8, 0xb3, 0xb2, 0xdf, 0xff, 0x1e, 0x3f, 0xc1, 0x26, 0xfe, 0x93, 0x46, 0x0a, 0xd7, 0xe2, 0xb4, 0xdb, 0xaf, 0xf9, 0x03, 0x3b, 0xfe, 0x03, 0xe3, 0xd4, 0x28, 0x3b, 0x0b, 0x02, 0xe2, 0xf4, 0xeb, 0x05, 0xea, 0x29, 0xd4, 0x17, 0x44, 0xc8, 0xee, 0x14, 0x6c, 0xfc, 0xf1, 0xc8, 0xd2, 0x17, 0xaf, 0x44, 0xf9, 0x2e, 0xa9, 0xd9, 0xcd, 0xc6, 0xf2, 0xe0, 0x14, 0xf2, 0x11, 0xd9, 0x35, 0x02, 0x0d, 0x23, 0xe5, 0x2e, 0xe4, 0x31, 0x1e, 0xe9, 0x06, 0xee, 0x20, 0xd7, 0xd1, 0x05, 0xf8, 0x3b, 0xd1, 0xe7, 0x00, 0xff, 0x2c, 0xe8, 0x27, 0x14, 0x03, 0xd4, 0xcf, 0xd1, 0xea, 0xf2, 0x99, 0xd4, 0xd4, 0x15, 0x0d, 0x10, 0xeb, 0xef, 0xf9, 0x17, 0xfc, 0xf8, 0xf3, 0xe2, 0x0d, 0xd1, 0x17, 0x28, 0xd5, 0x13, 0x16, 0xd6, 0x15, 0x32, 0xed, 0xf7, 0x2f, 0x06, 0xdb, 0xf4, 0xed, 0xd1, 0x05, 0xed, 0x23, 0x2a, 0x06, 0x2c, 0xd9, 0x26, 0xd4, 0x12, 0xd3, 0xfa, 0x0b, 0x1e, 0xce, 0xe0, 0x81, 0xe9, 0x04, 0x1d, 0x07, 0xf7, 0x2c, 0xc5, 0xdf, 0x08, 0xde, 0x01, 0x0c, 0xf8, 0x0d, 0x24, 0x26, 0x45, 0xe2, 0x19, 0x17, 0xf4, 0xde, 0xf4, 0x1e, 0xde, 0xe2, 0xd9, 0x01, 0xf2, 0x13, 0x03, 0x1a, 0x1d, 0x1e, 0x11, 0x15, 0x03, 0xe7, 0xf1, 0xe8, 0x26, 0x27, 0xfb, 0xf4, 0xd2, 0xde, 0xeb, 0xce, 0xd6, 0xd0, 0x22, 0x26, 0x29, 0x1f, 0x06, 0xe3, 0x03, 0x37, 0x29, 0xfc, 0xd2, 0xc0, 0x2c, 0x21, 0x05, 0x1c, 0x02, 0x04, 0xd8, 0x3b, 0xf3, 0xba, 0x2b, 0xe2, 0xea, 0xf9, 0x23, 0xd8, 0x15, 0x2e, 0xe5, 0xed, 0x00, 0xfb, 0x17, 0xff, 0x81, 0xe7, 0xf1, 0x10, 0x1f, 0xde, 0xe8, 0x20, 0xdb, 0xa8, 0x0b, 0x15, 0x1b, 0x0c, 0x17, 0x02, 0x03, 0xdb, 0x1e, 0x2f, 0x16, 0xf7, 0x20, 0xcc, 0x12, 0xe1, 0xde, 0xde, 0x27, 0x16, 0xe3, 0xf2, 0xec, 0xeb, 0x38, 0x0d, 0x0c, 0x0e, 0xef, 0x05, 0xd9, 0x07, 0xff, 0x0d, 0xfc, 0xd4, 0x23, 0xbf, 0xa3, 0xc7, 0xfb, 0xe9, 0xfc, 0x2b, 0xe3, 0x1e, 0xd9, 0xb9, 0xfa, 0x01, 0x32, 0xcc, 0xdb, 0xfe, 0x15, 0xfa, 0xd5, 0xf5, 0xdd, 0xc6, 0xc9, 0xc1, 0x1c, 0x14, 0xf6, 0xd7, 0x15, 0x25, 0xd0, 0xe4, 0x06, 0xce, 0x44, 0xfd, 0x0d, 0x2f, 0x34, 0xc5, 0xfb, 0x14, 0xf8, 0xd3, 0xe0, 0x0f, 0x18, 0xd8, 0x83, 0xd6, 0x0a, 0xbe, 0x01, 0xf5, 0x01, 0xfb, 0x09, 0xd4, 0xe3, 0xf9, 0xed, 0x05, 0x1b, 0x3d, 0x0f, 0xdc, 0xc8, 0xd5, 0xd6, 0xc0, 0xeb, 0x10, 0x2d, 0x17, 0x04, 0xe0, 0xdb, 0x1c, 0xbe, 0x9c, 0x35, 0xde, 0x58, 0x23, 0xd5, 0xfa, 0xf2, 0xd1, 0x1a, 0xda, 0xf6, 0x41, 0x16, 0xca, 0xfe, 0x38, 0xef, 0xf7, 0x30, 0x81, 0xc6, 0x1c, 0x5f, 0x27, 0xde, 0xb0, 0xcd, 0x32, 0x4e, 0x3a, 0xeb, 0x0c, 0x09, 0x04, 0xc1, 0x1a, 0x03, 0xbc, 0xbe, 0x99, 0x46, 0x28, 0x55, 0xf6, 0xec, 0xe0, 0xcc, 0xc0, 0xfc, 0xe1, 0x47, 0x12, 0x41, 0x31, 0x2e, 0x09, 0x0b, 0x0f, 0x08, 0xfc, 0x23, 0xfa, 0xd6, 0xe3, 0xd3, 0x2c, 0x1a, 0x96, 0xc2, 0x18, 0x29, 0x20, 0xc9, 0x92, 0xea, 0xf8, 0x4b, 0x5a, 0x3b, 0x1f, 0xc3, 0xe8, 0xd3, 0x16, 0xf2, 0xe6, 0x0f, 0xfe, 0xe3, 0x19, 0x2e, 0x11, 0x11, 0x21, 0x2d, 0xd3, 0x19, 0x19, 0x0b, 0x0a, 0xc1, 0xfa, 0x37, 0x22, 0x3d, 0x3a, 0xd6, 0xc6, 0xe3, 0x05, 0x25, 0x40, 0x10, 0x09, 0x50, 0xa1, 0xd1, 0xda, 0x39, 0xfe, 0x39, 0x9b, 0xdd, 0xed, 0xf3, 0x1d, 0x01, 0x21, 0x08, 0xec, 0x40, 0x73, 0xef, 0xd7, 0xf0, 0xd7, 0xd3, 0xab, 0x0a, 0xd3, 0xf9, 0xde, 0xc4, 0x40, 0xbb, 0x1a, 0xe2, 0x20, 0xe4, 0x1f, 0x22, 0xd0, 0xfe, 0x42, 0x0b, 0x15, 0xef, 0x35, 0x08, 0xd7, 0xce, 0xe4, 0x15, 0xaa, 0x2b, 0xe4, 0xef, 0x42, 0x5b, 0x19, 0x27, 0x1c, 0xfc, 0x30, 0x06, 0xef, 0x28, 0x08, 0x33, 0x1e, 0x12, 0x3b, 0x3a, 0xd3, 0xaf, 0xdd, 0xfb, 0xce, 0xe9, 0xf7, 0xde, 0x4b, 0x13, 0xa9, 0x17, 0x58, 0xd3, 0xf7, 0x18, 0xce, 0x0d, 0x02, 0xeb, 0xe7, 0xf9, 0x1e, 0x26, 0x02, 0x1d, 0x41, 0x2e, 0xb0, 0xcb, 0xf0, 0xfd, 0x01, 0x1d, 0x03, 0x12, 0x0e, 0x39, 0xcc, 0x08, 0x1d, 0x46, 0x03, 0x05, 0x13, 0x06, 0xf1, 0xed, 0x35, 0xad, 0xff, 0x0c, 0x1e, 0x27, 0xf9, 0xd8, 0x15, 0xeb, 0xb7, 0xff, 0x3a, 0xd3, 0xf1, 0xe4, 0x08, 0xd6, 0x2a, 0xb2, 0x1b, 0x81, 0x15, 0x04, 0x0b, 0x3a, 0x1c, 0xd2, 0xb7, 0x2d, 0xfa, 0x0d, 0x0a, 0x2f, 0xe1, 0xec, 0x2d, 0x32, 0x1b, 0xd2, 0x2c, 0x93, 0x0a, 0xf3, 0xde, 0x4a, 0x34, 0xda, 0xfa, 0x2b, 0x2c, 0xb0, 0xac, 0x28, 0x04, 0xe9, 0x4d, 0x9e, 0xed, 0xc4, 0xef, 0xd0, 0x0b, 0x17, 0x5b, 0xbf, 0x0d, 0x26, 0xe9, 0x34, 0xf5, 0x2e, 0xb0, 0x1b, 0x25, 0x4f, 0x09, 0xd6, 0x0a, 0x11, 0x39, 0x25, 0xfe, 0xd8, 0xad, 0x60, 0x07, 0xf8, 0xac, 0x20, 0x58, 0x64, 0x25, 0x03, 0xda, 0x37, 0xcd, 0xf0, 0xce, 0x0f, 0xd4, 0x13, 0x11, 0x28, 0xee, 0xc3, 0x50, 0xeb, 0x5b, 0xd4, 0x31, 0x07, 0x5d, 0xdf, 0xf5, 0xda, 0x25, 0x69, 0x9b, 0xaf, 0x98, 0xb9, 0x03, 0x1c, 0x98, 0x13, 0xb6, 0xae, 0x42, 0xb3, 0x2e, 0xd7, 0xda, 0xe0, 0x0a, 0x32, 0xaa, 0xa4, 0xf8, 0x5c, 0xba, 0xb7, 0xfa, 0x56, 0xe4, 0x6b, 0xad, 0xe4, 0x9b, 0xe8, 0xc0, 0xe3, 0x7f, 0x08, 0x36, 0x63, 0xfc, 0xf7, 0x5c, 0xc5, 0x24, 0x51, 0x25, 0x66, 0xcf, 0x40, 0xb1, 0xbd, 0xad, 0x8c, 0xdc, 0xfa, 0xa0, 0x01, 0x51, 0x31, 0x6e, 0xde, 0xba, 0xbb, 0xf5, 0x3c, 0xa5, 0xf6, 0xd3, 0xe6, 0x0b, 0xa1, 0x16, 0x15, 0xf0, 0xe7, 0xe0, 0x01, 0xf5, 0x04, 0xc6, 0xf9, 0xeb, 0x09, 0xe4, 0x3f, 0x13, 0x7f, 0x24, 0x9c, 0xe2, 0x56, 0x3f, 0xec, 0x11, 0xd0, 0xf0, 0xfc, 0x2f, 0xe6, 0x2d, 0xa2, 0x19, 0xd4, 0xdf, 0xe3, 0x25, 0xa6, 0xc4, 0xd1, 0x0a, 0x29, 0xd3, 0xf3, 0x9e, 0xee, 0xc5, 0x36, 0xdc, 0x2e, 0x28, 0x65, 0xf3, 0x31, 0xbe, 0x4a, 0x00, 0xf6, 0x17, 0x64, 0x16, 0xf7, 0xc0, 0xdc, 0xb1, 0x4f, 0x2b, 0xe8, 0xf3, 0x19, 0x07, 0x06, 0x5b, 0xda, 0x34, 0xba, 0xe3, 0xd6, 0xad, 0xfd, 0x35, 0xa2, 0xeb, 0x13, 0xe9, 0xc5, 0xcb, 0xdf, 0x38, 0xb4, 0xd8, 0xf3, 0xbb, 0x36, 0x1d, 0x28, 0xe2, 0xc9, 0xa6, 0xee, 0xfc, 0x18, 0xbf, 0x14, 0xff, 0x36, 0x3e, 0x09, 0x13, 0xf9, 0xf8, 0xf0, 0xc4, 0x74, 0x2b, 0x07, 0x04, 0x4d, 0x54, 0xed, 0x20, 0xfb, 0x19, 0xc0, 0xf6, 0xde, 0xf9, 0x81, 0x0f, 0xda, 0xba, 0xea, 0x05, 0x9c, 0xee, 0xa8, 0x2e, 0xf8, 0xbb, 0xe9, 0xed, 0x3d, 0xa4, 0xdc, 0x2b, 0x17, 0x07, 0x09, 0xf9, 0x9e, 0xdd, 0x99, 0xbf, 0xfb, 0xe6, 0x43, 0x3d, 0xd6, 0x53, 0x28, 0xe0, 0x12, 0xb1, 0x9a, 0x32, 0xf6, 0x40, 0x9c, 0xa9, 0xdd, 0xd3, 0x1c, 0x87, 0xff, 0xbe, 0xee, 0xe9, 0x17, 0xd6, 0xbd, 0xef, 0xe8, 0x6c, 0x84, 0xca, 0xb2, 0x2b, 0x0a, 0xbe, 0xea, 0xa8, 0xeb, 0xeb, 0xce, 0x1c, 0xb9, 0xb2, 0xa6, 0xd1, 0xc4, 0xc8, 0x5a, 0xc8, 0x35, 0x32, 0x3c, 0xea, 0xd7, 0x0a, 0xbf, 0xba, 0xf4, 0x40, 0x29, 0x22, 0xc1, 0xb7, 0xfb, 0x01, 0x28, 0xa1, 0xdd, 0xed, 0x02, 0xa6, 0xda, 0x29, 0xcf, 0xdc, 0xe8, 0x23, 0xe6, 0x72, 0xb6, 0xc4, 0xf9, 0xca, 0xea, 0xc9, 0xae, 0xaa, 0x9e, 0x40, 0x15, 0x0a, 0xe1, 0x4e, 0xe5, 0x24, 0xec, 0x23, 0xf8, 0xf9, 0xec, 0x03, 0xd5, 0x13, 0xdc, 0xaa, 0x2d, 0xed, 0xd0, 0x43, 0x81, 0x99, 0xb9, 0xab, 0xac, 0xfa, 0x3e, 0x11, 0xbc, 0x15, 0x22, 0x23, 0xd9, 0x44, 0xb0, 0x25, 0x9c, 0x4c, 0x16, 0xba, 0x00, 0x9f, 0x2a, 0xa2, 0x2b, 0x45, 0x04, 0xfc, 0xcc, 0xe5, 0x93, 0x51, 0xf7, 0x43, 0xf6, 0x2e, 0x29, 0xbc, 0x21, 0xc8, 0xc4, 0x2e, 0x05, 0x1c, 0x1b, 0x45, 0xae, 0x4d, 0xdf, 0x2a, 0x05, 0xd7, 0x2f, 0xfc, 0xe3, 0xfe, 0xd8, 0xeb, 0xaf, 0xcc, 0xd9, 0x4a, 0x04, 0x5a, 0x11, 0x4c, 0x11, 0xcd, 0x21, 0x29, 0xf3, 0xa5, 0xe2, 0x15, 0xf5, 0xae, 0x41, 0x9e, 0xd2, 0x3f, 0xd9, 0xeb, 0x33, 0x28, 0x5d, 0x83, 0x51, 0xea, 0xfd, 0x2f, 0xfd, 0x22, 0x47, 0xf9, 0xb5, 0x0e, 0x0c, 0xe4, 0xe7, 0xb9, 0x0e, 0xa0, 0xba, 0xfb, 0xda, 0xbc, 0x28, 0x1b, 0xdc, 0x1b, 0xdd, 0x54, 0x90, 0x7f, 0x55, 0xb1, 0xd5, 0xbe, 0x2e, 0xb3, 0xcb, 0xce, 0x3b, 0xaf, 0x29, 0xcb, 0xca, 0xd7, 0x3c, 0xdc, 0x43, 0x43, 0x11, 0x28, 0x1d, 0xea, 0xe8, 0xb6, 0xe2, 0xe3, 0xec, 0x50, 0x3c, 0xb5, 0xc2, 0xdf, 0xdf, 0x1b, 0xfb, 0xb2, 0x0b, 0x2e, 0x13, 0x96, 0x2c, 0x17, 0xdb, 0xf0, 0xa7, 0xf5, 0x8a, 0x58, 0x04, 0xdd, 0xc8, 0xbc, 0xc5, 0x9a, 0xeb, 0xaf, 0xe6, 0xcf, 0xce, 0xe0, 0xc7, 0x01, 0xe6, 0xc6, 0xb3, 0xed, 0xfb, 0xcc, 0x44, 0xfc, 0x37, 0x01, 0x13, 0x22, 0xd7, 0x20, 0xff, 0x04, 0x0f, 0x32, 0xd8, 0x47, 0xab, 0x10, 0x2a, 0xef, 0x48, 0x2e, 0x0b, 0xe4, 0x18, 0xe4, 0x30, 0x28, 0xd8, 0xa6, 0xf8, 0x01, 0x14, 0xef, 0xe6, 0x08, 0xe5, 0x2f, 0x2d, 0xee, 0xf7, 0x3c, 0x1d, 0xee, 0xed, 0xeb, 0x2d, 0xc0, 0x1f, 0xab, 0xfb, 0xc2, 0x10, 0xce, 0x1a, 0x4a, 0xd6, 0x0b, 0xd6, 0xe5, 0x02, 0xbb, 0xcd, 0x18, 0x81, 0x04, 0xcd, 0xf0, 0x00, 0x47, 0xde, 0x23, 0x0d, 0x3d, 0xe0, 0x3e, 0x2d, 0xbf, 0x51, 0x04, 0xce, 0x3e, 0x29, 0xea, 0x2e, 0x19, 0xc2, 0xf5, 0x0f, 0x09, 0xb0, 0x0a, 0xd4, 0x39, 0xf5, 0xd5, 0x6f, 0x1d, 0xfc, 0xf8, 0x07, 0x9e, 0xcf, 0xfb, 0x21, 0x0b, 0x1a, 0xea, 0xbc, 0xfe, 0xeb, 0xd6, 0x96, 0xfd, 0xf3, 0x0c, 0xcb, 0xf8, 0x33, 0xc3, 0xdc, 0x28, 0x11, 0x2c, 0x29, 0xb9, 0x14, 0x19, 0xdc, 0x41, 0xd2, 0x1b, 0xb2, 0xf6, 0x01, 0x7f, 0xef, 0x06, 0x1e, 0xba, 0xd3, 0xf5, 0x11, 0x2d, 0xbd, 0xf3, 0xe6, 0x11, 0xe3, 0xb4, 0x48, 0x25, 0x14, 0xb3, 0x07, 0xc5, 0x42, 0x03, 0xff, 0x10, 0xf1, 0x01, 0xd3, 0xf3, 0x43, 0x37, 0xe6, 0x98, 0x09, 0xa9, 0x16, 0x05, 0x1e, 0xc9, 0x00, 0x13, 0x0e, 0xfd, 0x0f, 0x18, 0xc0, 0x00, 0x25, 0x7c, 0xc6, 0xf0, 0x20, 0xee, 0x38, 0xcc, 0x06, 0x0a, 0xe5, 0x12, 0x1c, 0x11, 0xdd, 0xc9, 0x30, 0xe4, 0x00, 0xdd, 0x3e, 0xf0, 0xce, 0xec, 0x12, 0x36, 0xfe, 0x6d, 0x0e, 0xb4, 0x41, 0x26, 0xf7, 0xd9, 0x3c, 0x92, 0x38, 0xef, 0xea, 0xd2, 0x0d, 0x2b, 0xe4, 0xed, 0x2d, 0x4d, 0x11, 0xa4, 0x2f, 0x57, 0xce, 0x2a, 0xf5, 0xae, 0x2d, 0xaf, 0x13, 0x01, 0x97, 0x11, 0xeb, 0x25, 0x02, 0xe8, 0x19, 0x00, 0xce, 0xaf, 0x28, 0xc6, 0x40, 0xe9, 0xe0, 0x0b, 0xe0, 0x45, 0xbb, 0xcd, 0x0c, 0xdb, 0xd5, 0xc1, 0x19, 0xd5, 0x19, 0xe1, 0x0f, 0xef, 0xf0, 0xfd, 0xda, 0x0a, 0xc4, 0xeb, 0x1a, 0x31, 0x32, 0x33, 0x15, 0xe4, 0xce, 0x2a, 0xed, 0x0d, 0x1f, 0x11, 0xd6, 0x27, 0xd6, 0xe5, 0xf2, 0xc6, 0xeb, 0x2e, 0x04, 0x17, 0xd5, 0x83, 0x2d, 0xeb, 0x34, 0x15, 0x90, 0xde, 0x0f, 0xec, 0xc6, 0xf7, 0xd7, 0x98, 0xd3, 0xfc, 0x31, 0x23, 0xd7, 0xfa, 0x13, 0x2a, 0x61, 0x1a, 0x1f, 0xbf, 0x3f, 0x32, 0xdc, 0x28, 0xc7, 0xbe, 0x14, 0xc7, 0x0f, 0xe8, 0x05, 0xb1, 0x2a, 0x1e, 0x09, 0x46, 0x05, 0x83, 0x24, 0xe4, 0x0c, 0x12, 0x12, 0xf0, 0xfd, 0x27, 0xc1, 0x16, 0x86, 0xbc, 0x0c, 0x48, 0xd3, 0x05, 0x1b, 0xcd, 0xff, 0x64, 0x55, 0xbc, 0xe2, 0x99, 0x10, 0xdc, 0x1c, 0xf2, 0xd5, 0xfd, 0x3c, 0x16, 0x0e, 0x0f, 0x0e, 0xf7, 0xc2, 0x24, 0xc2, 0xfd, 0xcc, 0xe0, 0xf0, 0xf5, 0xcd, 0x2e, 0xe4, 0xd0, 0x2e, 0xe3, 0x0a, 0xe0, 0x25, 0xb4, 0x1e, 0x0a, 0x20, 0x12, 0x81, 0xfc, 0xf6, 0xe5, 0xbb, 0xfe, 0x2f, 0xed, 0xed, 0x43, 0x15, 0xd9, 0xbf, 0xbd, 0xe1, 0x30, 0xf9, 0xc5, 0xda, 0xcc, 0x3a, 0xe5, 0x22, 0xdd, 0x37, 0x54, 0x35, 0x1d, 0xff, 0xfe, 0x4a, 0x0e, 0xe6, 0xf2, 0xdf, 0x0b, 0x7f, 0x37, 0x4a, 0x1a, 0xd4, 0x2d, 0x3b, 0x35, 0x02, 0x13, 0xe3, 0xe2, 0x29, 0xb9, 0x49, 0xd4, 0x7d, 0x38, 0xf7, 0x64, 0xc0, 0x54, 0xe3, 0x2f, 0x9d, 0xd1, 0xc5, 0xfe, 0x44, 0xb0, 0x42, 0xdd, 0x31, 0x02, 0x48, 0xdb, 0xaf, 0xda, 0x58, 0xd3, 0xe8, 0x04, 0x3d, 0xfa, 0x19, 0x24, 0x06, 0xee, 0x1e, 0xeb, 0x79, 0x3f, 0x11, 0x24, 0x0f, 0x4e, 0x4f, 0x46, 0x3a, 0x0a, 0x5d, 0xe3, 0x3b, 0xcb, 0x1c, 0x0e, 0xa5, 0x27, 0x2d, 0xe5, 0xc9, 0xe2, 0x1b, 0x1e, 0xcf, 0x57, 0x70, 0x08, 0x1c, 0xea, 0x01, 0x21, 0x1b, 0xce, 0xc9, 0x0a, 0xfb, 0x2d, 0xc2, 0x24, 0xf7, 0xdd, 0xbd, 0xbb, 0x43, 0x31, 0x1c, 0x33, 0x5d, 0xc3, 0x30, 0x1c, 0xe5, 0x22, 0x55, 0x3f, 0xd3, 0xde, 0x17, 0xcf, 0xf1, 0x3c, 0x1e, 0xc1, 0xd9, 0xf3, 0x08, 0x32, 0x3b, 0x47, 0xce, 0x42, 0xcd, 0x40, 0x54, 0x10, 0x4b, 0xde, 0xae, 0xba, 0xf0, 0x11, 0x61, 0xd0, 0xba, 0xeb, 0x44, 0x01, 0xd9, 0xee, 0xe8, 0x25, 0xaf, 0xd6, 0xf6, 0xf9, 0xfe, 0xcc, 0xde, 0xfe, 0xb6, 0x45, 0x24, 0xcc, 0xe6, 0x31, 0x44, 0x17, 0x27, 0x1c, 0x15, 0xc0, 0xeb, 0xe7, 0x2c, 0xc0, 0x06, 0xcd, 0xdf, 0x09, 0x34, 0x17, 0x2d, 0x60, 0x00, 0xef, 0x81, 0xd4, 0xf6, 0x06, 0x20, 0xb3, 0xe0, 0x31, 0x0d, 0x5d, 0x5c, 0xbb, 0x56, 0xfc, 0xdd, 0x29, 0xdd, 0xbf, 0x31, 0x9c, 0xda, 0xe9, 0xa4, 0x12, 0x1d, 0x31, 0x16, 0x00, 0xee, 0x9f, 0x05, 0x0b, 0xa4, 0xa7, 0x5c, 0xc3, 0xf3, 0x02, 0xe8, 0x16, 0x24, 0xa4, 0x2c, 0x4d, 0xb3, 0x1e, 0x11, 0xfe, 0xa6, 0xcb, 0x5a, 0x95, 0x5b, 0x09, 0x23, 0x3f, 0x59, 0x0c, 0x61, 0x19, 0x6c, 0x08, 0x25, 0x02, 0xcd, 0xd3, 0xf5, 0x9f, 0x35, 0xc7, 0xb5, 0x05, 0xed, 0xe8, 0x1c, 0x22, 0x0c, 0x16, 0x2a, 0xc0, 0xf6, 0xc0, 0xf7, 0x2f, 0xcc, 0x14, 0x50, 0xcb, 0xc1, 0x20, 0xc4, 0xdc, 0x03, 0x2f, 0x3e, 0xfc, 0xf1, 0x2d, 0xf2, 0x9a, 0x14, 0x17, 0x27, 0x00, 0xff, 0xb8, 0xf3, 0xc4, 0x81, 0x01, 0xff, 0x03, 0x76, 0xc6, 0xf7, 0x1b, 0xbf, 0x1d, 0xd6, 0x71, 0x47, 0x33, 0xc0, 0x05, 0x2c, 0xfe, 0x4b, 0x52, 0x43, 0x00, 0x98, 0x2b, 0x23, 0xb3, 0x35, 0xef, 0xf9, 0x70, 0x44, 0xe9, 0x3f, 0x19, 0x3b, 0xc6, 0x62, 0xd3, 0xc7, 0xf8, 0xd9, 0xe7, 0x19, 0x0f, 0xba, 0xf4, 0x16, 0xea, 0xb9, 0x34, 0xd9, 0xf0, 0x5b, 0xda, 0xf1, 0xee, 0xca, 0x28, 0xce, 0x5b, 0x2d, 0x00, 0x1c, 0xc8, 0x2c, 0x05, 0xd8, 0xea, 0x5f, 0xe0, 0xd6, 0xb6, 0xf7, 0xd3, 0xd7, 0xf6, 0x1d, 0x01, 0xdf, 0x2b, 0x55, 0x04, 0xfe, 0xc9, 0xd0, 0x3b, 0x0b, 0xcc, 0x33, 0x2b, 0x45, 0x1c, 0xe0, 0x25, 0xc8, 0x0e, 0x9e, 0x0c, 0x0e, 0xb1, 0x22, 0x03, 0xfd, 0xdc, 0xff, 0xbf, 0xda, 0x69, 0xf7, 0x53, 0x02, 0xd0, 0x46, 0xd7, 0xe4, 0x4c, 0x00, 0xda, 0xa8, 0xdb, 0xda, 0x40, 0xd0, 0xb5, 0x10, 0x11, 0xe7, 0xaa, 0x4e, 0xb4, 0x10, 0x8b, 0x34, 0x48, 0xeb, 0x64, 0x2c, 0xcb, 0x3c, 0xb9, 0xf8, 0xd4, 0x48, 0x06, 0x5e, 0x1d, 0x51, 0x81, 0xc5, 0x07, 0xc6, 0xdb, 0xde, 0xf4, 0x56, 0xfc, 0xdd, 0xc3, 0xbd, 0x03, 0xff, 0x0b, 0x48, 0x37, 0xfb, 0xd8, 0xbe, 0xec, 0x51, 0xf5, 0x5f, 0xd7, 0x2b, 0x3a, 0x2c, 0x13, 0xf5, 0xdc, 0xf0, 0xfb, 0x5d, 0xd3, 0xa5, 0x49, 0x49, 0xd6, 0x0a, 0xc4, 0xec, 0xfb, 0x09, 0x61, 0x1a, 0x1c, 0x46, 0xaa, 0xb9, 0x19, 0x18, 0x34, 0x14, 0x49, 0x25, 0xef, 0x0d, 0xf1, 0x19, 0xea, 0x33, 0xdd, 0x38, 0x30, 0x6a, 0xd6, 0x47, 0x0f, 0xd0, 0xe5, 0xe8, 0x0d, 0x39, 0x01, 0xc0, 0xe5, 0xd7, 0xe0, 0xd1, 0xdf, 0x1f, 0x47, 0xfe, 0x63, 0x2d, 0x3c, 0x1f, 0x00, 0x1b, 0xf5, 0x43, 0x0c, 0xbe, 0x03, 0x0f, 0xaf, 0x00, 0x0d, 0xbc, 0xbc, 0x03, 0x30, 0x0e, 0xb5, 0x2e, 0xad, 0xca, 0x56, 0xbc, 0xc3, 0x67, 0xf0, 0x15, 0x05, 0x3e, 0x02, 0x54, 0xd3, 0x21, 0xba, 0x0d, 0x2b, 0xb5, 0x11, 0xe1, 0x12, 0xdc, 0x3b, 0x06, 0xd7, 0x17, 0x53, 0xf7, 0x08, 0x36, 0xae, 0x12, 0xf8, 0xce, 0x23, 0x81, 0x51, 0x07, 0xc0, 0x37, 0xf6, 0xe9, 0x0a, 0xe6, 0xd8, 0x3b, 0x03, 0x1e, 0xfc, 0xe4, 0x0c, 0xb8, 0x29, 0xf3, 0xa3, 0xfb, 0x43, 0x16, 0x99, 0xca, 0x1b, 0x38, 0x28, 0xef, 0x83, 0x31, 0xf2, 0x1c, 0x36, 0x2e, 0x50, 0x12, 0xca, 0x0d, 0x00, 0xdd, 0x4b, 0x3c, 0xd9, 0x45, 0x11, 0x42, 0xed, 0xc3, 0x09, 0x0b, 0xf9, 0xd7, 0x33, 0x40, 0x07, 0x05, 0x0d, 0x24, 0x2f, 0xf8, 0x39, 0xcf, 0x3b, 0x06, 0x33, 0xfb, 0xac, 0x10, 0xfc, 0xd7, 0x0c, 0x06, 0xd0, 0x3c, 0x2a, 0xe6, 0xe4, 0xca, 0x48, 0x08, 0xd5, 0x1a, 0x22, 0x10, 0x19, 0x01, 0x24, 0x34, 0x32, 0xeb, 0x9d, 0x2e, 0xf1, 0xe7, 0x30, 0xa4, 0x42, 0xe6, 0xde, 0x03, 0xf3, 0x3a, 0xc7, 0xce, 0xdc, 0x42, 0x05, 0x10, 0x07, 0xfc, 0xfd, 0xc5, 0x1e, 0x07, 0xfe, 0xe9, 0x28, 0xef, 0xc0, 0xda, 0x18, 0x3a, 0x26, 0x38, 0xc4, 0x09, 0x14, 0x1c, 0x2f, 0x2e, 0x14, 0x20, 0x34, 0xfa, 0x24, 0x1f, 0xe1, 0x22, 0xbf, 0x0b, 0x26, 0xdb, 0x05, 0xfd, 0x05, 0x01, 0xcf, 0x3d, 0xe1, 0x1b, 0xdc, 0xf0, 0xf4, 0x26, 0x06, 0x26, 0xe3, 0xfb, 0x04, 0x17, 0x14, 0xf1, 0xed, 0x18, 0x11, 0xbc, 0x18, 0x32, 0x16, 0xf8, 0xf6, 0x09, 0x5b, 0x1d, 0xf1, 0x9e, 0xfc, 0xfa, 0x14, 0xe7, 0x06, 0xf5, 0x0d, 0xd4, 0xcb, 0xff, 0x07, 0xe3, 0x18, 0xe8, 0xfd, 0x20, 0x1d, 0xee, 0xda, 0x3d, 0x22, 0xce, 0x17, 0xf7, 0xd6, 0x01, 0xd0, 0xfa, 0xe2, 0xdf, 0x1f, 0xe9, 0x1a, 0xf8, 0x32, 0x27, 0xd0, 0xf3, 0x4b, 0x27, 0x42, 0x15, 0x05, 0x01, 0x51, 0xf6, 0xe8, 0xd7, 0xf6, 0x0c, 0x08, 0xfc, 0xe2, 0xe9, 0x17, 0x05, 0x01, 0x21, 0xee, 0x0e, 0x0d, 0xe6, 0x02, 0xd8, 0x09, 0x2b, 0xfd, 0x29, 0x28, 0xfa, 0xe4, 0xd2, 0x05, 0xf2, 0x01, 0xdf, 0xe7, 0xcc, 0xf9, 0xf4, 0x0a, 0x21, 0xe9, 0x12, 0xeb, 0xdf, 0xfe, 0x10, 0x15, 0x0a, 0xc9, 0x00, 0x1c, 0xda, 0xf3, 0x81, 0xbf, 0xe5, 0x11, 0x59, 0xf4, 0xf1, 0xe5, 0xef, 0x1e, 0x1c, 0xd5, 0xbb, 0x09, 0x07, 0xe1, 0xcf, 0xef, 0x06, 0x28, 0x27, 0xd6, 0xea, 0x28, 0x3a, 0xb8, 0xdb, 0xbd, 0x44, 0x28, 0x1e, 0xf9, 0xea, 0xd2, 0x18, 0x19, 0x9f, 0xf5, 0x05, 0x81, 0xf9, 0xcd, 0x4a, 0x34, 0x36, 0x8f, 0xc6, 0x1f, 0x66, 0x28, 0x31, 0xca, 0xf5, 0x4b, 0x1d, 0x12, 0xf6, 0xbc, 0x02, 0xea, 0x34, 0x9a, 0x1d, 0xd2, 0xfb, 0x3a, 0xf1, 0x10, 0xe2, 0xee, 0x07, 0x28, 0x37, 0x18, 0x3a, 0xef, 0x1a, 0x0c, 0xfd, 0xd1, 0xbb, 0xe3, 0x32, 0xb5, 0xc2, 0x3e, 0x1e, 0xec, 0xf4, 0x23, 0xf0, 0xd3, 0x10, 0x95, 0x19, 0xd8, 0x29, 0x20, 0x25, 0xcb, 0x04, 0x19, 0x6d, 0x23, 0xae, 0x20, 0xdb, 0x50, 0x36, 0xb8, 0xae, 0xca, 0xc9, 0x53, 0x14, 0x5d, 0xe4, 0xc7, 0x0a, 0x22, 0x3d, 0x1a, 0xf0, 0xa9, 0xf3, 0x05, 0xcd, 0x49, 0xa8, 0xd1, 0xe6, 0xec, 0xb1, 0xf0, 0x1a, 0xc5, 0xbc, 0xe9, 0x49, 0x1f, 0x61, 0xa0, 0xcb, 0x0b, 0xfa, 0x22, 0xe3, 0x1a, 0x1c, 0x19, 0x00, 0x03, 0xb0, 0xda, 0x2a, 0x13, 0xfe, 0x05, 0xce, 0xec, 0xa4, 0x95, 0xf4, 0x3e, 0x23, 0x10, 0xda, 0xf6, 0x04, 0xd6, 0xd1, 0x30, 0x3f, 0x1c, 0xfa, 0xe6, 0xf0, 0x37, 0x4f, 0x2d, 0x1d, 0xb9, 0xc5, 0xe6, 0x53, 0x11, 0x9f, 0xbd, 0x40, 0x16, 0x32, 0xbd, 0xd7, 0x08, 0x0e, 0xe1, 0xec, 0xb1, 0xdb, 0x0a, 0xe8, 0xfc, 0x0f, 0xc0, 0xce, 0x17, 0xe2, 0xe3, 0x21, 0x03, 0x13, 0xec, 0x4a, 0xe6, 0x12, 0xfe, 0x20, 0xec, 0x0e, 0x3a, 0x0f, 0x1c, 0x28, 0x11, 0xe4, 0x04, 0xf4, 0x16, 0xf6, 0xca, 0x0f, 0xea, 0xe0, 0x30, 0xa4, 0x03, 0x35, 0xdc, 0x00, 0x2d, 0xd3, 0x05, 0x30, 0x99, 0xe5, 0xaf, 0xce, 0x11, 0xbd, 0x2a, 0x20, 0x14, 0xca, 0x12, 0xb6, 0x0e, 0xb2, 0xbc, 0xdf, 0x11, 0x65, 0x19, 0xcd, 0x21, 0x0a, 0x0e, 0x36, 0x19, 0xfd, 0xcd, 0x1e, 0x1f, 0xb2, 0x02, 0xd7, 0x3a, 0xf9, 0xc6, 0xe8, 0x1b, 0x52, 0xc6, 0xab, 0xea, 0xfd, 0xf5, 0x04, 0xd6, 0x13, 0x0f, 0x12, 0x81, 0xe6, 0xce, 0x0d, 0xe0, 0x12, 0x3a, 0xa2, 0x24, 0x9c, 0x6e, 0xed, 0xb8, 0x39, 0xc4, 0x1d, 0x33, 0x30, 0x37, 0xd2, 0x40, 0x20, 0xc9, 0x20, 0xc1, 0x28, 0x0b, 0x12, 0xd8, 0x45, 0x00, 0xf0, 0xbf, 0x2f, 0xbf, 0x33, 0x23, 0x30, 0xc0, 0x3d, 0xec, 0xfd, 0x81, 0xea, 0x32, 0xf6, 0x23, 0xf7, 0x14, 0x0e, 0xcd, 0x4d, 0x01, 0xac, 0x57, 0xe0, 0xed, 0xa4, 0x15, 0xf0, 0x0f, 0xd7, 0x1f, 0x40, 0x42, 0x2e, 0x3e, 0x11, 0xee, 0x36, 0x49, 0xba, 0x1b, 0xef, 0xc7, 0x55, 0x4b, 0x5d, 0x02, 0x1e, 0x0e, 0xfa, 0xd1, 0x45, 0x08, 0x08, 0x00, 0x44, 0xaa, 0x42, 0xce, 0xde, 0x6b, 0xdf, 0x43, 0x2d, 0x0e, 0x23, 0x0a, 0xd4, 0x09, 0xb3, 0xea, 0x24, 0xe6, 0xf3, 0xc1, 0xc8, 0x2e, 0xb4, 0xe7, 0x14, 0xe2, 0x59, 0xe5, 0xbf, 0x66, 0xec, 0x17, 0x42, 0x42, 0x33, 0xe9, 0x35, 0xf9, 0x18, 0x42, 0xca, 0xb8, 0x52, 0xdf, 0xfb, 0xa3, 0xd1, 0x16, 0xf0, 0xa6, 0xcd, 0xbb, 0xec, 0x44, 0xea, 0xd3, 0xed, 0xf3, 0x22, 0x32, 0xcd, 0xec, 0x40, 0xb5, 0xf4, 0xc6, 0x4c, 0x04, 0x10, 0xba, 0x41, 0xc5, 0x37, 0xee, 0x30, 0xf2, 0x2d, 0xd0, 0xb5, 0xbd, 0x0c, 0x2a, 0xf3, 0xe8, 0xd8, 0x36, 0x29, 0x0e, 0x28, 0x7f, 0x3d, 0xb5, 0x22, 0x6a, 0x19, 0xda, 0xbb, 0xff, 0x1e, 0xff, 0xea, 0xdb, 0xe2, 0x97, 0xb7, 0x10, 0xd2, 0x53, 0xb8, 0x3c, 0x32, 0x2e, 0xc5, 0x01, 0x03, 0xef, 0x27, 0xf0, 0x13, 0xb6, 0x17, 0x23, 0x57, 0xd7, 0xc4, 0x11, 0xf5, 0x37, 0x6f, 0xe8, 0x05, 0xfa, 0xe3, 0x22, 0x47, 0xf6, 0xf9, 0x7f, 0x61, 0xa1, 0xf5, 0x15, 0xaf, 0x28, 0xc7, 0x4c, 0x2c, 0x54, 0x11, 0xd4, 0x57, 0xcc, 0xb9, 0x90, 0x03, 0xe8, 0x1f, 0x50, 0x00, 0xe2, 0x46, 0xf0, 0x0b, 0x4d, 0x0e, 0x20, 0x72, 0x06, 0xbe, 0xaa, 0x12, 0xef, 0x3b, 0xad, 0x0c, 0x96, 0x1b, 0x29, 0xf0, 0x0b, 0x15, 0x20, 0x0d, 0xb1, 0x49, 0x21, 0x7e, 0xbb, 0xf5, 0x69, 0x03, 0x4e, 0xf0, 0xd6, 0x3d, 0x15, 0x29, 0xdb, 0x0c, 0x8b, 0x16, 0xef, 0x1e, 0x36, 0x5e, 0x16, 0xd1, 0xb2, 0x00, 0xcd, 0x27, 0xb5, 0xb0, 0xd9, 0xd9, 0x24, 0x0d, 0xf1, 0x4d, 0x3a, 0xc4, 0xb2, 0xee, 0x15, 0x5f, 0xd7, 0xda, 0x11, 0x2c, 0x1c, 0x33, 0xc0, 0x3c, 0x51, 0x49, 0x29, 0xfa, 0x06, 0xde, 0x0a, 0x3c, 0x22, 0xf7, 0x28, 0xfd, 0xa4, 0x69, 0x90, 0x0d, 0xf9, 0x09, 0x12, 0x5d, 0x4c, 0xc4, 0x26, 0x39, 0x95, 0x49, 0xf2, 0xd3, 0x5f, 0xbb, 0x36, 0x6f, 0x19, 0x3f, 0x45, 0xc1, 0xc7, 0x66, 0x21, 0x2c, 0xf5, 0xfc, 0x24, 0x43, 0xc7, 0xeb, 0xe1, 0xfe, 0x48, 0x50, 0x14, 0x99, 0xe9, 0xdd, 0x55, 0x2b, 0xae, 0xbe, 0x4b, 0xf8, 0xee, 0x5e, 0x01, 0x42, 0xbe, 0x11, 0x20, 0x26, 0x7f, 0x12, 0xe6, 0x2d, 0xc9, 0x2c, 0xab, 0x07, 0x02, 0x99, 0xf4, 0x17, 0xfe, 0x31, 0xf7, 0xcb, 0xae, 0xff, 0x0a, 0x1f, 0x1c, 0xe5, 0x19, 0xf7, 0xd3, 0x68, 0x10, 0xfa, 0x08, 0x3c, 0x29, 0xf4, 0xe0, 0xd5, 0x2b, 0xc4, 0x3b, 0xbd, 0x01, 0x05, 0xbf, 0x1e, 0xaf, 0xe8, 0x06, 0xf3, 0xe4, 0xf9, 0xc4, 0xa7, 0x3b, 0x3b, 0xd5, 0xe6, 0x9a, 0x28, 0xec, 0xc2, 0x02, 0x1b, 0xb3, 0x0b, 0xe3, 0x0b, 0xe8, 0xc2, 0xd6, 0xc0, 0x0b, 0xd4, 0x0c, 0xde, 0x49, 0x32, 0x53, 0xed, 0xcf, 0x5f, 0x4c, 0x08, 0x29, 0x12, 0xda, 0x1c, 0xdf, 0xf3, 0x23, 0x0f, 0xca, 0xa2, 0xf2, 0x32, 0x42, 0xf3, 0xeb, 0xea, 0x43, 0x09, 0xfa, 0x43, 0xe2, 0xc0, 0xab, 0xa6, 0x05, 0xf9, 0x0d, 0xe6, 0xba, 0x10, 0x01, 0xfe, 0x3f, 0xfa, 0xdd, 0x0a, 0x01, 0xf9, 0xf1, 0xf1, 0xd9, 0x15, 0x38, 0x26, 0x08, 0x64, 0x24, 0xf7, 0x03, 0x16, 0xd3, 0xce, 0xe2, 0xd6, 0x5f, 0x22, 0xfd, 0xb7, 0xc2, 0xee, 0x56, 0xda, 0x37, 0xc9, 0x30, 0xe0, 0xe5, 0xe3, 0x2a, 0xac, 0xb0, 0xec, 0xf1, 0xb5, 0x32, 0x2d, 0xbc, 0x14, 0x1d, 0xc0, 0x0d, 0xeb, 0x4a, 0x0e, 0x1c, 0xed, 0xd9, 0xcd, 0x37, 0xd9, 0x02, 0xed, 0x36, 0x24, 0x40, 0xbc, 0x2b, 0x3f, 0xce, 0xe9, 0x12, 0x24, 0x7f, 0x53, 0x0e, 0xef, 0xbd, 0xd4, 0x4b, 0xfe, 0xa9, 0xff, 0xff, 0x04, 0x00, 0x00, 0x00, 0x80, 0x00, 0x00, 0x00, 0x53, 0x08, 0x00, 0x00, 0xaf, 0x01, 0x00, 0x00, 0x8b, 0x0e, 0x00, 0x00, 0xab, 0xc9, 0xff, 0xff, 0xa5, 0xf8, 0xff, 0xff, 0x5a, 0xe2, 0xff, 0xff, 0x68, 0xd3, 0xff, 0xff, 0x2c, 0xe9, 0xff, 0xff, 0x63, 0xfc, 0xff, 0xff, 0x93, 0x0d, 0x00, 0x00, 0xf8, 0x15, 0x00, 0x00, 0xa9, 0xf6, 0xff, 0xff, 0xa9, 0xf0, 0xff, 0xff, 0x5f, 0xf4, 0xff, 0xff, 0x82, 0x0a, 0x00, 0x00, 0xc5, 0x38, 0x00, 0x00, 0xa7, 0x0b, 0x00, 0x00, 0x36, 0x0a, 0x00, 0x00, 0xe5, 0x10, 0x00, 0x00, 0x1e, 0x10, 0x00, 0x00, 0x14, 0xa0, 0xff, 0xff, 0x9b, 0x08, 0x00, 0x00, 0x64, 0xee, 0xff, 0xff, 0xa7, 0xeb, 0xff, 0xff, 0x22, 0xeb, 0xff, 0xff, 0x15, 0x04, 0x00, 0x00, 0x86, 0x08, 0x00, 0x00, 0x00, 0x0e, 0x00, 0x00, 0xe2, 0xe9, 0xff, 0xff, 0x03, 0xd7, 0xff, 0xff, 0xc0, 0xdb, 0xff, 0xff, 0x68, 0x08, 0x00, 0x00, 0x8a, 0xaa, 0xff, 0xff, 0x04, 0x00, 0x00, 0x00, 0x00, 0x48, 0x00, 0x00, 0x41, 0x26, 0xdf, 0xe5, 0xcc, 0xc7, 0x0d, 0x0c, 0x0e, 0x09, 0xf6, 0x0f, 0x1a, 0xd4, 0x02, 0xf6, 0xe7, 0x0c, 0x5d, 0xc9, 0xb7, 0x00, 0x20, 0xe8, 0x40, 0xe1, 0xee, 0x2a, 0xcf, 0x26, 0xf5, 0xec, 0x02, 0x01, 0xce, 0xf2, 0x19, 0xce, 0xec, 0xbd, 0xcf, 0xfb, 0x11, 0x1e, 0xfe, 0xd4, 0xbe, 0x0a, 0x10, 0x15, 0x73, 0xa1, 0xf4, 0xe3, 0x1a, 0x2a, 0x7f, 0xcf, 0xf7, 0x2b, 0x40, 0x21, 0xde, 0x15, 0x34, 0xdf, 0xf5, 0xdf, 0xcb, 0xf5, 0x1f, 0x1e, 0xf6, 0x6d, 0xd9, 0x12, 0xbd, 0xf3, 0x04, 0x28, 0x24, 0xd4, 0x0f, 0xc5, 0xbf, 0xfc, 0x54, 0xd6, 0x4f, 0xc8, 0xec, 0x2d, 0xdb, 0xff, 0x1b, 0xc1, 0x0e, 0x20, 0xb1, 0x3d, 0x07, 0xe7, 0xfa, 0x14, 0x20, 0x9f, 0x42, 0x51, 0x35, 0xb6, 0x23, 0xba, 0x41, 0x0b, 0x4d, 0xb8, 0xbb, 0xf4, 0x1c, 0xd8, 0x7b, 0xd0, 0xbf, 0xec, 0xe5, 0x34, 0xf8, 0x9f, 0x3d, 0xf6, 0x07, 0xdd, 0xda, 0x19, 0xcf, 0x09, 0x2e, 0xec, 0x22, 0x25, 0x1c, 0xc9, 0xe8, 0xd7, 0x3b, 0x30, 0x39, 0x02, 0x85, 0x20, 0x06, 0xf6, 0x13, 0xbf, 0xeb, 0x38, 0x47, 0x55, 0x03, 0x22, 0xee, 0xde, 0xf9, 0x08, 0x05, 0xe2, 0x05, 0xdd, 0x3f, 0x0f, 0xce, 0x3f, 0xc4, 0xc0, 0x03, 0xd4, 0x22, 0xfb, 0x5a, 0xff, 0x0d, 0xf2, 0x25, 0xcc, 0xff, 0x26, 0xf7, 0xfc, 0x3b, 0x07, 0xe2, 0xa9, 0x13, 0x14, 0xb0, 0x2e, 0xf1, 0x23, 0x30, 0x9d, 0xea, 0x94, 0xe7, 0x40, 0x0b, 0xb7, 0xc5, 0xd2, 0x1e, 0x31, 0x36, 0xcd, 0xc8, 0xd6, 0x6d, 0xd3, 0x44, 0xf4, 0xa0, 0x1e, 0x35, 0x26, 0x0d, 0xdc, 0x57, 0x23, 0xbe, 0x3e, 0xca, 0x22, 0xe7, 0xcd, 0xb9, 0xe2, 0x40, 0xef, 0xf7, 0xd9, 0x04, 0x40, 0x65, 0x24, 0x64, 0x92, 0xca, 0x00, 0x02, 0xc3, 0x60, 0xc7, 0x1e, 0x0f, 0xf5, 0xea, 0xee, 0x0e, 0xef, 0xfa, 0xf8, 0x05, 0x15, 0x01, 0xc2, 0x10, 0xf7, 0xfc, 0x12, 0x68, 0xb9, 0x25, 0x45, 0xe2, 0x1a, 0x29, 0x19, 0xde, 0xff, 0xe1, 0x62, 0xd9, 0xd3, 0x0e, 0xca, 0x1c, 0x36, 0x60, 0xbe, 0xcd, 0x08, 0xf7, 0x0c, 0xe5, 0x2d, 0x04, 0x14, 0xe2, 0xec, 0xea, 0x26, 0x0c, 0xcc, 0x32, 0x38, 0x04, 0xd5, 0xc6, 0xd5, 0x37, 0x09, 0x1e, 0x64, 0xfc, 0xdf, 0xf8, 0xcb, 0x3e, 0xd5, 0xd8, 0xcc, 0x6c, 0xe7, 0xbd, 0x15, 0x93, 0x06, 0x0c, 0x22, 0x36, 0xd6, 0x29, 0xef, 0xf8, 0x9f, 0x14, 0x34, 0xe3, 0xea, 0xf0, 0xf2, 0x48, 0x3b, 0x19, 0x5d, 0x0c, 0xe8, 0x1d, 0x22, 0x35, 0xcf, 0xa9, 0xbf, 0x5b, 0xff, 0xe5, 0x03, 0x07, 0xca, 0xe2, 0x15, 0x07, 0xb9, 0x08, 0xde, 0xe5, 0xe4, 0x17, 0x0b, 0x12, 0xf3, 0xd9, 0x3f, 0xfc, 0x64, 0x33, 0xf3, 0xf8, 0x09, 0xe3, 0xd9, 0x05, 0x31, 0xbe, 0xe0, 0xd7, 0x18, 0xb5, 0x34, 0xd5, 0x1a, 0x0d, 0x24, 0x1f, 0x09, 0xcf, 0xf2, 0x07, 0xbe, 0x10, 0x08, 0x9a, 0xee, 0xa8, 0x13, 0x43, 0x2a, 0x17, 0x07, 0x07, 0x08, 0x14, 0x14, 0xff, 0xf3, 0xf9, 0x81, 0x0c, 0x0f, 0x07, 0x31, 0x00, 0xf6, 0xd6, 0x40, 0x17, 0xf1, 0xf6, 0x14, 0xc6, 0xdb, 0x62, 0x59, 0x17, 0x17, 0x06, 0x10, 0x46, 0x1c, 0xdc, 0x4e, 0x23, 0xe4, 0x26, 0x10, 0x15, 0xad, 0xc8, 0x95, 0x14, 0xf8, 0x02, 0xf5, 0xd3, 0xc0, 0xdc, 0x0e, 0x2c, 0x06, 0xda, 0xb6, 0x2f, 0x06, 0x03, 0xcb, 0x09, 0xf8, 0xc6, 0xf6, 0x1e, 0x4b, 0x03, 0x48, 0xb7, 0xd3, 0xd3, 0x12, 0xf6, 0x0d, 0x15, 0xf1, 0xd9, 0xce, 0x16, 0x39, 0xe7, 0xef, 0x10, 0x14, 0xfd, 0xfb, 0x08, 0x29, 0x00, 0xf5, 0xe8, 0x44, 0xb3, 0xce, 0xa9, 0x0c, 0x43, 0x59, 0xcb, 0x56, 0x00, 0xbe, 0xef, 0xd0, 0x21, 0x12, 0xf6, 0xc5, 0x5c, 0xe9, 0xd5, 0x2c, 0xa6, 0x0c, 0x17, 0x50, 0xf3, 0x00, 0x34, 0x00, 0xbd, 0xd2, 0x34, 0x28, 0xe8, 0xe1, 0xdd, 0xe3, 0x38, 0x33, 0xf4, 0x34, 0x1e, 0x12, 0xf1, 0xf6, 0x3d, 0x07, 0xcb, 0xdc, 0x32, 0xed, 0x09, 0x45, 0xdb, 0xed, 0xb5, 0xf9, 0xfb, 0x09, 0xdd, 0x03, 0x2b, 0xde, 0xf8, 0xe0, 0x26, 0x33, 0xd0, 0x3e, 0x1c, 0x32, 0x06, 0x26, 0x00, 0x17, 0xe2, 0xd5, 0xbe, 0x2b, 0xaa, 0xef, 0xd3, 0xcf, 0x24, 0xfa, 0xc0, 0x20, 0x4d, 0xd0, 0x19, 0x1c, 0x57, 0x81, 0x12, 0xbc, 0x45, 0xa2, 0xf1, 0x12, 0x3b, 0x06, 0x11, 0xea, 0xc8, 0xa3, 0xe2, 0x32, 0xc7, 0x20, 0x96, 0xc7, 0xf6, 0x15, 0x1e, 0xdd, 0xe8, 0x31, 0x07, 0xf9, 0x48, 0xf5, 0xe3, 0xf4, 0xf5, 0x9f, 0xdc, 0xfa, 0x1b, 0xab, 0xf3, 0x35, 0x35, 0x18, 0xbf, 0xc8, 0x06, 0x09, 0xeb, 0xbc, 0xae, 0xaf, 0xbe, 0x9c, 0x0c, 0xf4, 0x3c, 0x0c, 0x03, 0xf1, 0x0e, 0x34, 0xe2, 0x05, 0x2b, 0x18, 0x0c, 0xc3, 0x02, 0xca, 0x09, 0xd5, 0x75, 0x2b, 0x49, 0x25, 0x23, 0xbc, 0x33, 0xf9, 0xe6, 0x19, 0xeb, 0xef, 0xc4, 0xea, 0xba, 0xf5, 0x4e, 0xfd, 0x37, 0xe3, 0x12, 0x43, 0xe7, 0x3a, 0x22, 0x01, 0xf4, 0xe7, 0xc6, 0xe8, 0xef, 0xa5, 0xf2, 0x2c, 0x0b, 0x12, 0x0a, 0x1a, 0xd0, 0xcc, 0x07, 0x08, 0xee, 0xe7, 0xcb, 0x44, 0x2b, 0x40, 0xe9, 0x19, 0x36, 0x3c, 0x29, 0x07, 0xfe, 0x25, 0xff, 0x1f, 0x50, 0x91, 0xcf, 0x38, 0x17, 0xdf, 0x2a, 0x60, 0xff, 0xed, 0x11, 0x04, 0x18, 0x22, 0x41, 0xe7, 0x10, 0xfa, 0xb7, 0xe1, 0x2e, 0x31, 0xcd, 0xaf, 0xc7, 0x1e, 0xde, 0xf4, 0x4d, 0xcf, 0x1b, 0x17, 0x78, 0x00, 0xed, 0xdc, 0xff, 0xc3, 0xfa, 0xed, 0x1f, 0x17, 0x44, 0x2b, 0x1b, 0x11, 0x59, 0x2d, 0xf9, 0xae, 0xbd, 0x13, 0x48, 0x45, 0x38, 0xf6, 0x1c, 0x1f, 0x40, 0x11, 0x12, 0xcd, 0xde, 0xff, 0x0b, 0xd8, 0xe4, 0xd8, 0x4c, 0x05, 0xf4, 0x4e, 0x02, 0xd5, 0x14, 0xef, 0xa8, 0xc0, 0xb8, 0xb0, 0xf5, 0x18, 0xf8, 0x20, 0xc3, 0x2a, 0xdb, 0xb9, 0xf9, 0x26, 0xed, 0x3d, 0x1f, 0x2a, 0xcf, 0x28, 0x42, 0xec, 0xcb, 0x14, 0x46, 0xef, 0xe8, 0x16, 0xf0, 0xc4, 0x36, 0xf8, 0x36, 0xf1, 0x0f, 0xe8, 0xae, 0x07, 0x14, 0xf8, 0xea, 0x06, 0x05, 0x05, 0xc5, 0x27, 0x48, 0x19, 0x09, 0xd3, 0x44, 0x0a, 0x55, 0xe0, 0xb2, 0xcd, 0xcd, 0x03, 0x4e, 0x06, 0x54, 0x29, 0xee, 0xf7, 0x10, 0xc5, 0x3e, 0x02, 0x02, 0x1d, 0xec, 0x15, 0xe2, 0x13, 0xde, 0x00, 0x35, 0x2f, 0x27, 0x3f, 0xe1, 0x5f, 0xb5, 0x9d, 0xd0, 0x65, 0xa3, 0xda, 0xfe, 0x5b, 0xd7, 0x0c, 0xfc, 0xfc, 0x7f, 0x12, 0x26, 0x20, 0x0e, 0x2c, 0xdc, 0xd9, 0x0e, 0xb6, 0xcb, 0x00, 0x47, 0x11, 0xec, 0xe8, 0x18, 0x0b, 0xe9, 0xfb, 0xd4, 0xd5, 0xf8, 0x5c, 0xe7, 0xdf, 0xe3, 0x3f, 0xf4, 0xc8, 0xf0, 0x0e, 0x49, 0x25, 0xdc, 0x46, 0xf8, 0x2d, 0xb2, 0xe4, 0x1a, 0xff, 0xf5, 0xc5, 0xce, 0x07, 0xef, 0xe2, 0x19, 0xc3, 0xe5, 0x13, 0xca, 0x04, 0xeb, 0xb5, 0x5f, 0xf8, 0x17, 0x21, 0x26, 0xd5, 0xeb, 0x0a, 0xc5, 0x4b, 0xe8, 0xe0, 0xcc, 0x2c, 0xd6, 0x0e, 0xc0, 0x05, 0x05, 0xf9, 0xcf, 0x11, 0x37, 0xe4, 0x28, 0x28, 0xf4, 0x02, 0x24, 0xb9, 0xc0, 0x2d, 0xe6, 0xbb, 0x2c, 0x56, 0x89, 0xff, 0xe1, 0xed, 0x2c, 0xd2, 0xf2, 0xf4, 0xed, 0xde, 0xd4, 0x1a, 0x4b, 0xbe, 0xe4, 0xea, 0x67, 0x12, 0xd5, 0xf9, 0xe6, 0x0a, 0xee, 0x11, 0x25, 0xb0, 0xd6, 0x0b, 0x9a, 0x1e, 0xf5, 0x4a, 0xc5, 0xfd, 0xc5, 0xca, 0x73, 0x2f, 0xdc, 0xea, 0xd2, 0xf2, 0x0d, 0xd8, 0x4d, 0xca, 0x02, 0x08, 0x0c, 0x07, 0xec, 0x10, 0x21, 0xcb, 0xaa, 0xef, 0x17, 0xd2, 0x3a, 0x19, 0x1d, 0xe3, 0x05, 0x22, 0x3c, 0x1e, 0xd8, 0xe5, 0xe5, 0x35, 0xf1, 0x10, 0xdf, 0xff, 0xea, 0xfc, 0xe5, 0x01, 0x21, 0x19, 0xad, 0x27, 0x19, 0x16, 0xe6, 0x1e, 0xf8, 0x33, 0xea, 0xf2, 0xce, 0x3f, 0xb1, 0xce, 0xdf, 0x26, 0xb8, 0x05, 0x1d, 0xc3, 0x7a, 0x35, 0xf9, 0xf9, 0x26, 0x03, 0xef, 0xd7, 0x44, 0xea, 0xb9, 0xdc, 0x5a, 0x2e, 0x23, 0xdc, 0xf7, 0x41, 0xea, 0x29, 0x1a, 0xd9, 0x11, 0x1f, 0xaf, 0x24, 0xf1, 0x15, 0x18, 0xe1, 0x0d, 0x20, 0x29, 0x1d, 0x2b, 0x62, 0xd8, 0xeb, 0xcc, 0xda, 0x30, 0xef, 0xf4, 0xb8, 0x17, 0x18, 0xec, 0xf3, 0xff, 0xca, 0xbe, 0x1e, 0x0b, 0xdf, 0x17, 0xb7, 0x5a, 0xf7, 0xcb, 0xf4, 0x32, 0xd9, 0xc4, 0xe8, 0xce, 0x3c, 0xdb, 0xf5, 0xad, 0x46, 0xd9, 0xf9, 0xf9, 0xf2, 0x30, 0x09, 0xc5, 0xeb, 0xdf, 0x12, 0x9d, 0xeb, 0x75, 0xef, 0x19, 0x28, 0x0c, 0x88, 0x3f, 0x2d, 0x24, 0xda, 0xc0, 0x12, 0xc6, 0xc2, 0x29, 0x03, 0xba, 0xcf, 0x32, 0xb3, 0x36, 0x1e, 0x29, 0xe5, 0x22, 0xe9, 0xb5, 0xff, 0xc3, 0x34, 0x83, 0xca, 0x1f, 0x02, 0xe0, 0xbf, 0x49, 0x88, 0x4b, 0xf9, 0xf1, 0x1b, 0x45, 0xfe, 0xdc, 0xed, 0x32, 0x24, 0xc6, 0x32, 0x37, 0xdb, 0x14, 0x37, 0xd7, 0x0d, 0x4a, 0xe8, 0xe0, 0xd7, 0x46, 0x2a, 0x2a, 0xca, 0x0a, 0xb4, 0xd9, 0xe1, 0x37, 0xbe, 0x08, 0x21, 0x12, 0xeb, 0xff, 0xfc, 0x47, 0x0b, 0xdf, 0xf2, 0xed, 0xc8, 0xea, 0x2b, 0x24, 0x03, 0xf2, 0xf8, 0xd5, 0xb1, 0x17, 0x14, 0xf2, 0xf7, 0xc0, 0xc7, 0x21, 0xd5, 0x42, 0x57, 0x11, 0xc8, 0x35, 0x50, 0x06, 0xfd, 0xbd, 0x10, 0x10, 0xfa, 0x39, 0x19, 0xbb, 0x17, 0x02, 0xc3, 0x7a, 0xd8, 0x15, 0xfb, 0x15, 0x9e, 0xf9, 0xc4, 0xc2, 0x27, 0xb6, 0x2c, 0x4f, 0xeb, 0x23, 0x13, 0x29, 0x02, 0x57, 0x36, 0x15, 0xef, 0x4b, 0x13, 0x1e, 0x0f, 0xd7, 0xde, 0xd4, 0xeb, 0x60, 0xa1, 0x4e, 0xdd, 0xd3, 0x2a, 0xf3, 0xbc, 0x01, 0xfe, 0x2d, 0x5a, 0xec, 0x0e, 0x3c, 0x9a, 0x02, 0x48, 0xfc, 0xb1, 0x1e, 0x34, 0x55, 0xe5, 0x2a, 0x2a, 0xcc, 0x20, 0x17, 0xc6, 0x59, 0x08, 0x1f, 0xe5, 0xf9, 0xdb, 0x15, 0xd7, 0xc5, 0x2a, 0x3a, 0x05, 0xdf, 0x29, 0x0d, 0x23, 0x40, 0x02, 0xe1, 0x32, 0x23, 0xaa, 0x0c, 0x54, 0xfe, 0x26, 0xef, 0xe7, 0x13, 0x23, 0x11, 0xf1, 0xef, 0xef, 0x1f, 0xdc, 0x2d, 0x0e, 0xb4, 0x2a, 0x08, 0xa0, 0xbf, 0xb2, 0xbe, 0xfe, 0xf7, 0xd9, 0x04, 0xc3, 0xb4, 0xef, 0x5b, 0x92, 0x1a, 0xf6, 0x0a, 0x04, 0xce, 0x2c, 0x1a, 0xa3, 0x27, 0x1b, 0xfb, 0xf8, 0xf9, 0xa9, 0x37, 0x67, 0xb2, 0x23, 0x2e, 0xad, 0x17, 0xf5, 0xe6, 0x21, 0x1a, 0xa8, 0x7f, 0x13, 0xde, 0x39, 0x2b, 0xa6, 0x43, 0xd8, 0x64, 0xf7, 0xd5, 0x1c, 0x2e, 0xdd, 0x15, 0x07, 0x20, 0xde, 0x61, 0x0c, 0x44, 0xff, 0xaa, 0xde, 0x1e, 0xcd, 0x00, 0xb0, 0x03, 0x0d, 0xd1, 0x0b, 0x2f, 0xfd, 0x9e, 0x01, 0x73, 0x01, 0x08, 0x07, 0x04, 0x2a, 0x04, 0xec, 0x31, 0x05, 0x03, 0xbe, 0x0d, 0xac, 0x1e, 0xf8, 0x0b, 0x06, 0x16, 0x33, 0x34, 0xda, 0xf1, 0xeb, 0x00, 0xcc, 0x0e, 0xd4, 0x20, 0x22, 0xbd, 0xf6, 0x5a, 0xa7, 0x0f, 0x36, 0xe7, 0xb6, 0xc6, 0xe1, 0x35, 0x05, 0x27, 0xbe, 0xfb, 0xd8, 0xe6, 0xff, 0x3f, 0x0d, 0xe5, 0xe4, 0x4e, 0x03, 0x90, 0xf3, 0x1e, 0xf2, 0x4e, 0xf8, 0xe6, 0xe0, 0xfa, 0x0e, 0x0d, 0x38, 0xd7, 0x49, 0x1b, 0xdf, 0xe7, 0xfa, 0xda, 0xe5, 0xfd, 0xb6, 0xec, 0x12, 0xea, 0xdd, 0xcc, 0x06, 0xfe, 0xfa, 0xe5, 0x21, 0xbe, 0xe6, 0x06, 0xdd, 0xc9, 0x30, 0xdb, 0xc2, 0xed, 0x16, 0xf7, 0xaa, 0x37, 0x35, 0x1c, 0xbb, 0x24, 0x14, 0x44, 0xf1, 0xef, 0xae, 0x00, 0xda, 0x17, 0x0b, 0x6f, 0x71, 0x0d, 0x4e, 0xf0, 0x47, 0xa4, 0x18, 0xf4, 0xf9, 0x4a, 0xf3, 0xc9, 0xb1, 0xd1, 0x4d, 0x18, 0xe2, 0xfc, 0x41, 0x48, 0xad, 0xf0, 0xdf, 0x07, 0xfc, 0xfa, 0x01, 0x24, 0x8e, 0x4f, 0xf9, 0x52, 0x1f, 0x18, 0x43, 0x48, 0x07, 0xe3, 0xd0, 0xf4, 0x1c, 0x54, 0x31, 0x06, 0x0f, 0x0a, 0xfd, 0xc9, 0xe9, 0x96, 0x1f, 0x28, 0x37, 0x27, 0xdf, 0xfe, 0x8c, 0x14, 0xf1, 0xcb, 0xd7, 0xe8, 0xe9, 0xcc, 0xeb, 0x38, 0xda, 0xbb, 0x05, 0xb6, 0xad, 0x34, 0x1e, 0xf4, 0x19, 0xd4, 0xb6, 0xec, 0x11, 0x21, 0xe8, 0x46, 0x25, 0x05, 0x1d, 0x1f, 0x3c, 0x22, 0xd7, 0xee, 0xc8, 0x59, 0xdc, 0x21, 0x12, 0x59, 0x55, 0xdf, 0xfc, 0x01, 0x08, 0xd3, 0xb5, 0xee, 0xb2, 0xe0, 0xe8, 0xd6, 0xcd, 0xcb, 0x29, 0x0b, 0x9d, 0x3a, 0x24, 0xee, 0xd5, 0x1e, 0x37, 0x0d, 0x10, 0xea, 0xc9, 0x30, 0x81, 0x16, 0x2d, 0x2d, 0x2e, 0xf1, 0x34, 0x09, 0x28, 0xbb, 0xe9, 0x20, 0x14, 0x0a, 0xff, 0x27, 0xe0, 0x0e, 0x39, 0xfb, 0x3d, 0xe1, 0x09, 0x16, 0x36, 0xa6, 0x17, 0x25, 0xe8, 0x3d, 0xfa, 0xbb, 0xd2, 0x3c, 0xfd, 0xc6, 0x1d, 0x4f, 0x1a, 0x08, 0xf0, 0x1c, 0xd8, 0xf3, 0x1d, 0x1e, 0x5f, 0xc9, 0x2c, 0xf8, 0xde, 0xc7, 0x3f, 0xdf, 0x2a, 0xdc, 0x2a, 0xad, 0xc7, 0xfe, 0xb1, 0x9b, 0xf9, 0xd5, 0x1c, 0x18, 0xee, 0x3f, 0x52, 0xaf, 0xaf, 0xd0, 0x29, 0x19, 0x04, 0xcb, 0x27, 0xa9, 0x04, 0xe4, 0xf4, 0xfa, 0x3d, 0xe3, 0xe2, 0x2a, 0xf3, 0xe6, 0x6a, 0xec, 0x00, 0xf4, 0xd5, 0xbb, 0x3d, 0xc0, 0x4d, 0x15, 0xcd, 0x1c, 0x3d, 0x03, 0xa4, 0x03, 0x05, 0xeb, 0x1b, 0x21, 0x07, 0xc1, 0x08, 0xde, 0xd2, 0x1d, 0xea, 0xfa, 0xe8, 0x19, 0x23, 0x1f, 0x1d, 0x00, 0x00, 0xc7, 0xdf, 0xe8, 0xe4, 0x30, 0xed, 0x08, 0xe6, 0xe2, 0x16, 0x20, 0x10, 0xd9, 0x03, 0x1f, 0x08, 0xfd, 0xd1, 0xf4, 0xeb, 0xe9, 0xc1, 0x23, 0x25, 0x09, 0x1c, 0x51, 0xef, 0xed, 0x3d, 0x87, 0xc5, 0xd7, 0xb4, 0xb6, 0x35, 0xec, 0x0b, 0x14, 0x01, 0x2f, 0xfd, 0x09, 0xcc, 0xc2, 0xff, 0x29, 0x1e, 0xb2, 0x06, 0x07, 0x38, 0xe3, 0xb1, 0xe6, 0x29, 0xf4, 0x48, 0x5b, 0x14, 0x0d, 0x3a, 0xb3, 0xdc, 0xd0, 0xb6, 0xdb, 0xeb, 0xd6, 0x39, 0xf3, 0xb6, 0xe4, 0xf3, 0xd8, 0xff, 0xe8, 0x45, 0x36, 0xd2, 0x10, 0x27, 0x81, 0xd0, 0x16, 0x18, 0xed, 0xb6, 0xfe, 0x30, 0x38, 0xf7, 0xc7, 0x17, 0xc6, 0xb7, 0xde, 0xf2, 0xd6, 0xac, 0x1e, 0x31, 0xb7, 0xe7, 0xe5, 0x1d, 0xf1, 0x2b, 0xd3, 0x2e, 0x35, 0x4e, 0xf8, 0xfa, 0xf9, 0x45, 0xff, 0x08, 0xf3, 0xde, 0x0c, 0xf4, 0xfc, 0x32, 0xcb, 0x5d, 0xac, 0xbb, 0xf5, 0x93, 0xab, 0x0d, 0xf9, 0x3b, 0x35, 0xc2, 0x27, 0x15, 0xd9, 0x09, 0xc8, 0x23, 0xf3, 0x59, 0xf2, 0xe3, 0xd1, 0x0a, 0xca, 0xe7, 0xd8, 0x3a, 0xfd, 0xf6, 0xfc, 0x04, 0xe9, 0x24, 0xbf, 0xe4, 0x0a, 0xa9, 0xfd, 0x2c, 0x1a, 0xff, 0xc2, 0xe1, 0x12, 0x0c, 0x0e, 0xd5, 0xc4, 0xfc, 0xf1, 0x1f, 0x1e, 0x00, 0x93, 0x15, 0xb6, 0xb6, 0xe9, 0xc0, 0xfe, 0x08, 0x1e, 0x0e, 0x11, 0x00, 0x06, 0x0c, 0xeb, 0xdd, 0x17, 0xe1, 0xea, 0xeb, 0xd5, 0x12, 0xeb, 0x7a, 0x02, 0xd7, 0xc0, 0xd2, 0x43, 0x19, 0xf4, 0xed, 0x45, 0xe3, 0xc6, 0x0f, 0xe0, 0x44, 0xd6, 0xd4, 0x16, 0x33, 0xf3, 0x32, 0xe6, 0x06, 0xe5, 0x46, 0xcf, 0x38, 0xf5, 0xc5, 0x31, 0xe6, 0xbf, 0xdb, 0xec, 0xcf, 0xb5, 0x6f, 0xcb, 0x50, 0x4c, 0xde, 0x17, 0xe6, 0x08, 0x0a, 0xbc, 0x5b, 0x9b, 0xd3, 0x07, 0xf2, 0x13, 0x59, 0xfe, 0xdd, 0x2c, 0x21, 0xbd, 0x0b, 0x00, 0xeb, 0xc3, 0x0e, 0x0e, 0x10, 0x16, 0xc6, 0x06, 0x4d, 0xba, 0x24, 0x4f, 0x22, 0xcc, 0xbc, 0xc8, 0x48, 0xd8, 0xd2, 0x1b, 0x16, 0x08, 0x15, 0x43, 0x54, 0x3b, 0xce, 0xcf, 0x0d, 0xed, 0x10, 0xb4, 0xf1, 0xcc, 0x1d, 0x28, 0x22, 0x3f, 0xdd, 0x1d, 0xab, 0xee, 0xf2, 0x40, 0xd0, 0x1a, 0xe0, 0xb4, 0x2a, 0xf7, 0xdf, 0xdc, 0x11, 0x1c, 0x2a, 0xe7, 0x1d, 0xe0, 0x19, 0xfb, 0xd6, 0xc7, 0x29, 0x9f, 0xd6, 0x10, 0x49, 0xcc, 0xf2, 0xf1, 0x27, 0xd7, 0x4e, 0xfa, 0x25, 0xde, 0xe0, 0x07, 0x07, 0xb2, 0xd4, 0xe0, 0x4c, 0xd3, 0x26, 0x11, 0xf2, 0xc5, 0xdc, 0x11, 0x02, 0x3e, 0x3b, 0xaa, 0x34, 0xe4, 0xea, 0x30, 0x3c, 0xa2, 0x3b, 0xfe, 0xea, 0x0e, 0x4c, 0xa4, 0x23, 0x58, 0x27, 0xc9, 0xef, 0x0c, 0xfd, 0xdd, 0x1c, 0x22, 0x43, 0x11, 0xf0, 0x10, 0xf9, 0x1c, 0x2c, 0x2a, 0x07, 0xda, 0xc0, 0xd0, 0x1d, 0xc5, 0x15, 0x29, 0xfd, 0x40, 0x2b, 0xd4, 0xc8, 0xef, 0x0a, 0x17, 0xc9, 0x10, 0x24, 0x30, 0xbf, 0x98, 0x51, 0x81, 0xfe, 0x08, 0x13, 0x05, 0x3a, 0xce, 0xf1, 0x45, 0xce, 0x95, 0xed, 0xdf, 0xe3, 0xf9, 0x57, 0xec, 0x4a, 0x23, 0x07, 0xbb, 0x57, 0xc3, 0x4e, 0x3e, 0xdd, 0x3f, 0x26, 0xbb, 0x26, 0xcf, 0x33, 0xaf, 0xc2, 0xbd, 0x19, 0x02, 0x4c, 0xd8, 0x02, 0xdc, 0x25, 0xba, 0xde, 0x9f, 0xd8, 0x28, 0x42, 0xa2, 0x3a, 0x2b, 0xdd, 0x11, 0x32, 0xfe, 0x53, 0xf4, 0x24, 0xf0, 0xd6, 0xdf, 0x09, 0xf0, 0xd3, 0xc7, 0x35, 0xc1, 0x17, 0x2a, 0x1c, 0xf2, 0xdf, 0xf9, 0x38, 0xc7, 0x21, 0xf2, 0xda, 0xd6, 0xe5, 0xf2, 0x70, 0x50, 0xd4, 0x14, 0x03, 0xfa, 0x31, 0x09, 0x13, 0xd5, 0x60, 0x88, 0x24, 0x4a, 0x52, 0x10, 0x2c, 0xfb, 0x39, 0xb9, 0x47, 0xf4, 0xff, 0x17, 0xa5, 0xc8, 0xf7, 0xc6, 0x3d, 0xc0, 0xbf, 0x10, 0xf0, 0xd2, 0x01, 0xf2, 0xbe, 0xc0, 0x44, 0xa8, 0x49, 0xc8, 0x53, 0xa3, 0x14, 0xed, 0x23, 0xd0, 0x7d, 0xdd, 0xe4, 0x10, 0x49, 0xad, 0xb6, 0xe7, 0xaa, 0xcf, 0xdc, 0xb2, 0x1e, 0xb5, 0x2f, 0x34, 0x22, 0x01, 0xce, 0x19, 0xf0, 0x01, 0xf1, 0xfb, 0x19, 0xb0, 0xf6, 0xa4, 0xcc, 0x5a, 0x12, 0x28, 0x2a, 0xf7, 0x01, 0x01, 0x27, 0xa7, 0x13, 0x3f, 0xf9, 0xe6, 0xfa, 0x04, 0xd6, 0xdd, 0x3a, 0x03, 0x45, 0x41, 0x45, 0xfa, 0xf3, 0x1a, 0x1f, 0xbe, 0x38, 0x3b, 0x20, 0xbf, 0xf6, 0x20, 0x0e, 0xe1, 0x50, 0x0b, 0x3e, 0xe1, 0x62, 0xa8, 0x11, 0x06, 0x02, 0xf7, 0xef, 0xdc, 0xf2, 0x20, 0xe3, 0x3c, 0x0f, 0xfb, 0x0e, 0x15, 0x07, 0xe1, 0x08, 0x91, 0xf7, 0x14, 0x56, 0xea, 0xcf, 0xf4, 0x1a, 0x14, 0x35, 0x2f, 0xef, 0xe5, 0xf6, 0xc2, 0xbf, 0x26, 0xb5, 0xcb, 0x29, 0xc1, 0x4b, 0xad, 0xed, 0x44, 0x45, 0xf6, 0x06, 0xde, 0xb0, 0x1f, 0xd5, 0x20, 0xe8, 0xdc, 0xc7, 0xef, 0xf5, 0x3f, 0x29, 0xd2, 0x0a, 0xc4, 0x4c, 0x30, 0x29, 0xf3, 0x26, 0x26, 0x18, 0x04, 0x2c, 0xcc, 0xfb, 0x11, 0xf7, 0xc0, 0x1c, 0xdb, 0x05, 0xcc, 0xf0, 0x00, 0x1b, 0xc1, 0xf1, 0x46, 0x5a, 0xe2, 0xf0, 0x2e, 0x53, 0xfc, 0x30, 0xbc, 0x27, 0xfe, 0x47, 0xc0, 0xc9, 0xfd, 0x03, 0xdb, 0xd0, 0xc4, 0xe1, 0xbc, 0xbb, 0x2a, 0x0e, 0xfe, 0xf8, 0xbe, 0xf9, 0xe6, 0x2c, 0x86, 0x1a, 0xf9, 0x63, 0x9b, 0x1b, 0x38, 0x16, 0x00, 0x2a, 0xf0, 0x5f, 0xc1, 0x5f, 0xc9, 0x17, 0xed, 0xf8, 0xf1, 0x22, 0xdf, 0x22, 0xe7, 0xd5, 0x4b, 0x02, 0xf5, 0x96, 0xf3, 0xed, 0xcc, 0xf3, 0xd7, 0x0f, 0xed, 0x24, 0x81, 0xbc, 0x18, 0x36, 0x23, 0x0a, 0xa4, 0x32, 0xee, 0x41, 0xee, 0xf2, 0x24, 0x09, 0x37, 0xdc, 0x0f, 0xee, 0xac, 0x35, 0x0e, 0x14, 0xda, 0x0a, 0xc0, 0x18, 0x54, 0x33, 0x1b, 0xe1, 0x6b, 0x09, 0xbc, 0x2e, 0xb5, 0xcb, 0xa8, 0xd2, 0xd6, 0xed, 0x22, 0xf3, 0x2a, 0x43, 0x06, 0x57, 0x10, 0x07, 0xb8, 0x0f, 0x10, 0x3b, 0xb7, 0xed, 0x0b, 0xfa, 0xff, 0x0b, 0xf1, 0x27, 0x08, 0xdb, 0x13, 0xf9, 0x00, 0x23, 0xa5, 0x11, 0xfb, 0xf9, 0xcb, 0xd3, 0x20, 0x00, 0x0e, 0x45, 0xe7, 0x7f, 0xda, 0xec, 0xbd, 0xe7, 0x32, 0x50, 0xca, 0xf5, 0x22, 0x00, 0x09, 0x2e, 0xca, 0x13, 0x3c, 0x03, 0xf0, 0x17, 0x00, 0xfd, 0xc1, 0xfa, 0x2c, 0x34, 0xf4, 0xd3, 0x3f, 0x1c, 0xed, 0x42, 0xbb, 0x4e, 0x04, 0xd5, 0xda, 0x3a, 0xeb, 0x1d, 0xc8, 0xec, 0x2f, 0x06, 0x22, 0xe7, 0x06, 0x18, 0x17, 0xd0, 0x24, 0xf6, 0x09, 0x36, 0xc6, 0x1f, 0x05, 0x31, 0x12, 0x19, 0xe2, 0xe1, 0x35, 0x14, 0xe7, 0x4a, 0x18, 0xa8, 0x15, 0xf9, 0x1b, 0x51, 0xdf, 0xb7, 0x41, 0xc9, 0x03, 0x4e, 0x12, 0x14, 0x03, 0xac, 0x10, 0x06, 0xd2, 0x53, 0xd8, 0xf7, 0xb0, 0xf7, 0x12, 0xef, 0x21, 0xda, 0xe3, 0x07, 0x16, 0x53, 0xe6, 0x0d, 0x0d, 0x24, 0x13, 0x65, 0xfd, 0x0d, 0x03, 0x20, 0x0f, 0x29, 0x0d, 0x02, 0xe9, 0xc2, 0x25, 0x5f, 0xcf, 0x0f, 0xf7, 0xeb, 0x0e, 0xed, 0xca, 0xf0, 0xd1, 0x0a, 0xf3, 0x34, 0x0f, 0x71, 0xea, 0x0b, 0xab, 0x32, 0xef, 0xfb, 0x08, 0x12, 0x26, 0x02, 0xf9, 0x0d, 0xde, 0x26, 0xe7, 0xc2, 0x0f, 0xe9, 0xe1, 0x2e, 0xac, 0xe5, 0x8c, 0x17, 0xf2, 0x0b, 0xfa, 0x0f, 0x3f, 0x1d, 0xcf, 0x47, 0xe5, 0x0b, 0x10, 0xf3, 0xe3, 0x72, 0xdc, 0xf2, 0x2b, 0x1e, 0x40, 0x2b, 0xd8, 0x1f, 0x19, 0x0a, 0x39, 0xd7, 0xfb, 0xf2, 0xa0, 0xe6, 0xcf, 0x0a, 0x18, 0x32, 0x03, 0xde, 0x29, 0x1f, 0xdb, 0x44, 0x21, 0xf2, 0xfa, 0xe7, 0xf0, 0x66, 0xa5, 0xb1, 0x2c, 0xda, 0xff, 0x5b, 0x0b, 0x2b, 0x3e, 0x03, 0x1a, 0x47, 0xca, 0xf6, 0xbe, 0xf9, 0x13, 0x38, 0x07, 0xd8, 0x18, 0xf5, 0x29, 0x43, 0xea, 0x50, 0xe8, 0xca, 0x14, 0x0d, 0xdf, 0x22, 0x19, 0xcc, 0x2a, 0x17, 0x1a, 0xdf, 0x05, 0x24, 0xf2, 0x27, 0x01, 0x12, 0xee, 0x4b, 0x0d, 0xdb, 0xd0, 0x24, 0x81, 0xe8, 0x56, 0x42, 0xbb, 0x00, 0x24, 0x53, 0x0f, 0xad, 0xcb, 0x0d, 0xfa, 0x62, 0xe7, 0xb9, 0x41, 0xe1, 0xb4, 0xe6, 0x53, 0x08, 0x05, 0xd3, 0x19, 0x58, 0xc6, 0x36, 0xa7, 0xc3, 0xd6, 0x47, 0x90, 0x15, 0x34, 0xc3, 0x0b, 0xff, 0xed, 0x73, 0x6b, 0xf2, 0xea, 0x33, 0xd8, 0x58, 0xc2, 0xb7, 0x48, 0x36, 0xff, 0x14, 0x31, 0x1c, 0xca, 0xfa, 0xea, 0x19, 0x9d, 0x09, 0xf2, 0xff, 0xd3, 0x03, 0x05, 0xa9, 0xee, 0x08, 0x56, 0xf2, 0xd9, 0x57, 0xb3, 0x32, 0x00, 0x09, 0x02, 0xe0, 0xb1, 0x10, 0x28, 0x45, 0x2a, 0x44, 0x8e, 0x4f, 0x2c, 0xd5, 0x21, 0x5b, 0x43, 0x09, 0xb8, 0xce, 0xfa, 0xfc, 0xce, 0x27, 0x25, 0xe1, 0xe1, 0xe6, 0xf4, 0x52, 0x59, 0x9d, 0xbe, 0x46, 0xd0, 0x1c, 0x1c, 0xd9, 0x2f, 0xbe, 0xb3, 0xf1, 0x67, 0xc7, 0x12, 0xf1, 0x1e, 0x3e, 0x04, 0x3e, 0x09, 0xf9, 0xc1, 0x3e, 0xd9, 0xf8, 0x17, 0x30, 0x14, 0x40, 0xda, 0x74, 0x43, 0xa3, 0xea, 0x40, 0xc0, 0x0e, 0xaf, 0xbd, 0x2c, 0x33, 0x0e, 0x47, 0xf3, 0x23, 0x08, 0xec, 0x06, 0x33, 0xa8, 0x51, 0x19, 0x4a, 0x0a, 0xe4, 0x24, 0xc6, 0x1b, 0xe2, 0x1f, 0x3e, 0xcf, 0x22, 0xdd, 0x29, 0xeb, 0x02, 0x94, 0x12, 0xe0, 0x10, 0xe4, 0xfb, 0x27, 0xdc, 0xa1, 0x0e, 0x05, 0xcb, 0xef, 0x2e, 0x29, 0x5d, 0x10, 0x03, 0xfd, 0x5d, 0xa3, 0xcb, 0x24, 0x32, 0xe1, 0xc6, 0x51, 0x10, 0x1e, 0xf6, 0xde, 0xf0, 0xdd, 0x40, 0xe5, 0x15, 0x52, 0x07, 0xff, 0xe7, 0x2c, 0x12, 0x40, 0xab, 0xec, 0x30, 0x1b, 0x00, 0x03, 0xff, 0xf7, 0x22, 0xcc, 0xda, 0xdf, 0x16, 0x15, 0x19, 0x1c, 0x5b, 0x5b, 0xc8, 0xf6, 0x2c, 0xed, 0x2b, 0xd9, 0x01, 0xf4, 0x0c, 0xd0, 0xff, 0xe2, 0xec, 0x17, 0xed, 0xfc, 0x58, 0x9b, 0x0f, 0xc5, 0x23, 0x0d, 0x10, 0xf5, 0xc8, 0xe9, 0x23, 0xe8, 0x01, 0x19, 0x33, 0xd3, 0xf1, 0xda, 0xbd, 0xcc, 0x1f, 0xec, 0x05, 0xfb, 0x2b, 0x18, 0x46, 0xb9, 0x02, 0xf8, 0x15, 0xc8, 0x25, 0x00, 0xfb, 0xd2, 0x3e, 0xf9, 0x14, 0x3d, 0x05, 0xf6, 0xd7, 0xe5, 0xfd, 0x21, 0x29, 0xec, 0x51, 0x2d, 0x60, 0x39, 0xf6, 0xe7, 0xbd, 0xf7, 0xa0, 0x07, 0xc0, 0x14, 0x28, 0x26, 0x28, 0x19, 0xb2, 0x42, 0xe1, 0x08, 0x51, 0x18, 0xfa, 0x2d, 0xe5, 0x07, 0xd1, 0x23, 0xd7, 0x0f, 0xe5, 0xd1, 0x7f, 0x15, 0xd6, 0xda, 0xb7, 0xec, 0xb2, 0xf1, 0xf4, 0x1b, 0xfe, 0x49, 0xf8, 0x29, 0x1a, 0xff, 0xcc, 0xfe, 0xb9, 0x35, 0x2d, 0x14, 0x17, 0x00, 0xde, 0x06, 0xe8, 0xc8, 0x18, 0x42, 0x41, 0xe3, 0x5b, 0xff, 0xde, 0x1b, 0x1a, 0xfb, 0x14, 0xed, 0xf0, 0xcc, 0xe2, 0xfd, 0x18, 0xfc, 0xf1, 0xf8, 0x1b, 0x5e, 0xf5, 0x09, 0x33, 0x1d, 0xf4, 0xfa, 0x05, 0x28, 0x2a, 0xe5, 0x1c, 0x33, 0xea, 0x04, 0x55, 0x4d, 0x07, 0x0c, 0xb8, 0xa3, 0x00, 0x3f, 0xd6, 0xaf, 0xbc, 0x68, 0x1d, 0x51, 0x4e, 0xb5, 0xdd, 0x6c, 0xeb, 0xe8, 0x04, 0x04, 0xfa, 0x55, 0x33, 0xdd, 0x39, 0x23, 0xe6, 0x5d, 0xd4, 0x15, 0x76, 0x2e, 0xeb, 0xd3, 0x91, 0x14, 0xc4, 0xb6, 0x26, 0xe4, 0xe1, 0x16, 0xe2, 0x10, 0xee, 0xd8, 0xbf, 0x0e, 0xd1, 0xdb, 0x3e, 0x13, 0xfa, 0x39, 0xec, 0xdb, 0x01, 0x12, 0xef, 0x30, 0x37, 0x23, 0x3f, 0xf8, 0xc7, 0xdd, 0xe7, 0x13, 0x2c, 0x10, 0xfe, 0xfb, 0x30, 0x28, 0x0e, 0x05, 0x2c, 0xdf, 0x48, 0x1d, 0xc4, 0x0f, 0x24, 0x39, 0xd9, 0x4c, 0xf5, 0x04, 0x50, 0xb6, 0x25, 0xfa, 0x11, 0xdc, 0xea, 0xfb, 0x1c, 0xcb, 0xf1, 0x03, 0xe4, 0x28, 0xa3, 0xcc, 0x00, 0xfc, 0xfb, 0xea, 0x03, 0xee, 0xef, 0x03, 0xf8, 0x33, 0x4f, 0xee, 0xd0, 0xe4, 0xdd, 0xc1, 0xf4, 0xe7, 0x21, 0x5f, 0x1d, 0x0e, 0x78, 0x2d, 0xfe, 0xc0, 0xd4, 0x1b, 0x02, 0x06, 0x17, 0xde, 0x35, 0xe0, 0xda, 0x43, 0x03, 0xba, 0xf1, 0x05, 0xc6, 0x45, 0x4f, 0xc0, 0xe2, 0x36, 0xfc, 0x01, 0x1a, 0xeb, 0xec, 0x04, 0x25, 0xf2, 0x2f, 0x24, 0x90, 0x0e, 0x0c, 0xbb, 0xee, 0x0f, 0x32, 0x0a, 0x38, 0xdb, 0xf1, 0x99, 0xd2, 0xec, 0xdc, 0xd3, 0xcc, 0xcc, 0xcb, 0x13, 0x16, 0xc9, 0xd6, 0x13, 0x34, 0xde, 0x10, 0xf4, 0x55, 0x1a, 0xd5, 0xe0, 0x47, 0xcd, 0x28, 0x06, 0xaa, 0x0a, 0xec, 0xb9, 0xba, 0x06, 0x15, 0x10, 0x31, 0xcd, 0x87, 0xd1, 0x2a, 0x0b, 0xb7, 0xde, 0xc5, 0xff, 0xd5, 0x1c, 0x39, 0x20, 0x4a, 0xd0, 0x3d, 0x66, 0xe0, 0xf3, 0x11, 0x1b, 0xf5, 0xf7, 0x1a, 0x4f, 0x49, 0x0f, 0x2c, 0xfa, 0xf3, 0x32, 0xca, 0xb0, 0x23, 0x05, 0x40, 0x2e, 0xfe, 0x2b, 0xbf, 0xdb, 0x8d, 0xe5, 0xfc, 0x0c, 0xf4, 0xd7, 0x28, 0xd3, 0x43, 0xab, 0x43, 0x22, 0xee, 0xf0, 0xe5, 0xa2, 0x35, 0xe1, 0xfd, 0xf3, 0x1e, 0x0f, 0x24, 0x2f, 0xd6, 0xc2, 0xe7, 0xcb, 0x1e, 0xad, 0x28, 0xce, 0x30, 0x19, 0x2c, 0x2f, 0x99, 0xcb, 0x27, 0x2b, 0x03, 0xe3, 0x12, 0xdd, 0x3f, 0xd6, 0xb4, 0x56, 0xc6, 0x05, 0x03, 0x0a, 0xd2, 0xc5, 0x0e, 0x2c, 0x18, 0x48, 0x32, 0xb5, 0x22, 0xd4, 0x2d, 0xde, 0xe4, 0xd3, 0xe4, 0x41, 0x11, 0xc8, 0x5f, 0x4c, 0xc3, 0xeb, 0x35, 0x54, 0xf0, 0xf5, 0xc2, 0x08, 0x0d, 0x5a, 0xc6, 0xc6, 0xf7, 0xe4, 0x41, 0xb9, 0x9c, 0xe0, 0x5c, 0x24, 0x41, 0x08, 0xd6, 0xf3, 0x91, 0xea, 0x9f, 0x51, 0x1a, 0xd2, 0x6d, 0xe0, 0xe3, 0x06, 0x56, 0x24, 0x15, 0x02, 0xcf, 0x02, 0x3d, 0x61, 0x35, 0xa6, 0xbe, 0xc5, 0xec, 0xcc, 0xd3, 0x45, 0xf5, 0x1a, 0xc5, 0xf4, 0xed, 0x01, 0xfb, 0xf4, 0x3e, 0x0d, 0xe0, 0xd8, 0x5c, 0x6d, 0x14, 0xf2, 0x4a, 0xd0, 0x33, 0x2d, 0xc3, 0xc9, 0xd2, 0xff, 0x9f, 0x79, 0x0c, 0x1c, 0x3e, 0xed, 0xb1, 0xc3, 0x05, 0x1f, 0xbe, 0x20, 0x12, 0x0d, 0x12, 0xf9, 0xf0, 0x5b, 0x63, 0xb9, 0xf2, 0x42, 0xa8, 0xac, 0xe4, 0x37, 0x20, 0xad, 0x07, 0x2b, 0x7e, 0xe9, 0xdf, 0xfe, 0xe7, 0xfb, 0xd6, 0xd8, 0xbf, 0xfc, 0x14, 0x3a, 0x25, 0xce, 0x81, 0x2f, 0xe4, 0x1b, 0xf9, 0xdc, 0x38, 0xed, 0x00, 0xb9, 0x0f, 0xf6, 0xec, 0x11, 0xd0, 0xca, 0xcc, 0xff, 0x51, 0xee, 0x0e, 0x92, 0x25, 0xdb, 0xe3, 0xf4, 0xed, 0xe3, 0xd3, 0xd8, 0x0e, 0xf5, 0xe1, 0xe4, 0x0a, 0x4a, 0x4f, 0xdd, 0xf0, 0xf6, 0xec, 0xf3, 0x32, 0xba, 0xf4, 0x25, 0xe1, 0x38, 0x26, 0xf9, 0xce, 0x2a, 0x81, 0xfd, 0xbd, 0x08, 0x2d, 0x10, 0x11, 0xba, 0x43, 0x05, 0xfb, 0x3e, 0xc8, 0x29, 0x19, 0x45, 0x1a, 0xf7, 0xa2, 0xe2, 0x03, 0x2b, 0xe1, 0x1a, 0x56, 0xd0, 0xe3, 0x21, 0x16, 0xd1, 0xf4, 0xe8, 0xe0, 0x03, 0x03, 0x1c, 0x36, 0xe1, 0xf0, 0xfd, 0x13, 0xb4, 0xa6, 0x09, 0xdf, 0x2c, 0x1c, 0x28, 0xef, 0xe2, 0xc8, 0x07, 0xf3, 0x34, 0xd0, 0xe6, 0x26, 0x39, 0xf3, 0x7e, 0x01, 0xc6, 0x08, 0xe8, 0xf2, 0xf1, 0xcd, 0xb1, 0x16, 0xe4, 0xc5, 0xeb, 0xf3, 0x3d, 0x17, 0x38, 0xd9, 0x36, 0xd7, 0xfe, 0x3a, 0xde, 0xe0, 0xe9, 0xbd, 0x4e, 0x17, 0x06, 0xe7, 0xea, 0xba, 0x74, 0x47, 0xc0, 0x2f, 0xec, 0xb5, 0x46, 0x01, 0xbd, 0x3a, 0xa8, 0xdf, 0xca, 0xf0, 0xda, 0x24, 0x22, 0xc3, 0xfe, 0xe8, 0x18, 0x07, 0xea, 0xcc, 0xd5, 0x08, 0x3c, 0xf8, 0x29, 0x4e, 0x33, 0x9e, 0x2e, 0x30, 0xf8, 0xf7, 0x28, 0xab, 0x2c, 0xe5, 0xf7, 0xf9, 0x0b, 0x0d, 0xf9, 0x04, 0xfa, 0xa3, 0xe7, 0xda, 0xfb, 0xe5, 0x5f, 0xe3, 0xc4, 0x38, 0x11, 0x2e, 0x07, 0x0b, 0x0b, 0xdb, 0x06, 0xfe, 0x17, 0x00, 0xbe, 0xeb, 0xfa, 0x05, 0x41, 0x25, 0xd1, 0x25, 0x19, 0x1b, 0x0d, 0xf1, 0xe9, 0xe8, 0x2e, 0xb8, 0x46, 0xbc, 0xf4, 0x2a, 0xd4, 0xcb, 0xac, 0xf6, 0x2e, 0xf7, 0xfe, 0x4b, 0x0e, 0xc1, 0x40, 0x13, 0x0e, 0xc7, 0xde, 0xca, 0xe3, 0x0a, 0x0c, 0x25, 0xfa, 0xd6, 0x0a, 0x04, 0xdd, 0x18, 0x0e, 0x0c, 0x37, 0xe4, 0x43, 0x15, 0x32, 0xd8, 0xdc, 0xc2, 0x08, 0xe7, 0x20, 0x46, 0x15, 0xb1, 0x4d, 0x28, 0xc7, 0x12, 0x0e, 0x8d, 0x0e, 0xbc, 0xf8, 0x27, 0x11, 0xfd, 0xf3, 0xc4, 0xa7, 0x10, 0x0d, 0xc5, 0x08, 0xe1, 0x2e, 0x11, 0x30, 0x15, 0x14, 0xfd, 0x1d, 0xe9, 0x15, 0x37, 0x36, 0x28, 0x54, 0x1c, 0xcd, 0x0b, 0x28, 0xbd, 0x59, 0x1f, 0x42, 0xe1, 0xf6, 0x3e, 0xf7, 0xf4, 0xae, 0xc7, 0xf0, 0xf9, 0x3c, 0xf6, 0x1d, 0x11, 0xef, 0xf4, 0x3d, 0x0a, 0x1e, 0x1d, 0x21, 0x0f, 0xe7, 0x19, 0xf1, 0xf2, 0xee, 0xd7, 0x10, 0x17, 0xf1, 0xef, 0x25, 0xb9, 0xf8, 0xf7, 0x38, 0xe7, 0x0b, 0x5c, 0xba, 0xbd, 0x2b, 0xf6, 0xe4, 0x2a, 0xf4, 0x20, 0xf7, 0xf4, 0xe0, 0xe8, 0xd7, 0xe3, 0x3c, 0x0f, 0x2f, 0x32, 0xfd, 0xba, 0xe5, 0x2e, 0xca, 0x38, 0x49, 0xc6, 0xaf, 0xfe, 0x09, 0x05, 0xce, 0x2a, 0x2a, 0x31, 0x01, 0x41, 0xf0, 0x67, 0x0d, 0x15, 0xe6, 0x0c, 0xda, 0x9a, 0x05, 0x08, 0xcc, 0xef, 0x41, 0xff, 0x11, 0xf0, 0x38, 0xe5, 0x07, 0xcf, 0xd8, 0xf9, 0xcd, 0xf8, 0x2d, 0xba, 0xd5, 0xd0, 0xcb, 0xcd, 0x1f, 0xf2, 0xdc, 0x09, 0xef, 0x2c, 0xf9, 0xe6, 0xa6, 0xf5, 0xf0, 0x17, 0xeb, 0x39, 0x38, 0x25, 0x16, 0xb5, 0x1c, 0x2d, 0xc2, 0x19, 0xec, 0xde, 0x30, 0x35, 0x1a, 0xf0, 0xb6, 0x3d, 0xdb, 0xea, 0xf4, 0xda, 0xcc, 0x31, 0xc7, 0x20, 0xf1, 0x19, 0xe8, 0xf0, 0x2e, 0xe7, 0xd6, 0xcf, 0xda, 0x0a, 0xd4, 0xe7, 0xf4, 0x28, 0xd9, 0x45, 0x22, 0xf3, 0xa7, 0x2f, 0x1e, 0xfa, 0xcf, 0xe3, 0xed, 0xf6, 0x39, 0x1e, 0xfe, 0x37, 0xd9, 0x19, 0xf4, 0x14, 0xf5, 0xbd, 0xe6, 0x31, 0xc2, 0x2c, 0x42, 0xd1, 0x19, 0x35, 0xd3, 0xdc, 0xae, 0xd3, 0x35, 0xba, 0xc5, 0x26, 0x0b, 0x15, 0xf9, 0xe9, 0x19, 0xdd, 0x32, 0xed, 0xf8, 0x5f, 0xd0, 0x13, 0x3f, 0xe9, 0x0a, 0xe4, 0xef, 0x21, 0x08, 0x3c, 0xec, 0x2e, 0xe4, 0x1b, 0xae, 0x0e, 0xe4, 0xc0, 0x18, 0x9f, 0x43, 0x41, 0xeb, 0xb0, 0x12, 0x36, 0x16, 0xb3, 0x2b, 0x2c, 0x04, 0x36, 0xe6, 0x0b, 0x44, 0x1b, 0xa7, 0xfc, 0x2b, 0x16, 0x13, 0x1a, 0xdb, 0x39, 0xea, 0x0a, 0xad, 0x5d, 0xe3, 0xf0, 0x47, 0xf4, 0x81, 0xdc, 0x0b, 0x1b, 0xb6, 0xdf, 0xfb, 0x14, 0x30, 0x09, 0xff, 0x7d, 0x19, 0x02, 0xef, 0x21, 0xf6, 0xe6, 0xd7, 0x0a, 0x01, 0xca, 0x41, 0x0e, 0xe6, 0x15, 0x25, 0xc9, 0xc3, 0xe2, 0xd4, 0xc5, 0x06, 0xe1, 0xed, 0x03, 0x38, 0xc6, 0xe3, 0x48, 0x3a, 0xd4, 0x08, 0x34, 0x00, 0x01, 0x00, 0xe4, 0xe1, 0xfb, 0x14, 0x06, 0xe7, 0x0f, 0xd8, 0xf3, 0xdb, 0x61, 0xe9, 0xe1, 0xe0, 0xeb, 0xd7, 0xf3, 0x10, 0xcc, 0xca, 0xd9, 0x35, 0xfd, 0xda, 0x44, 0xfb, 0x27, 0xea, 0xf4, 0xa3, 0x05, 0xb8, 0xfe, 0x1e, 0xf8, 0xd5, 0x0c, 0xa8, 0x03, 0xdd, 0xee, 0x0e, 0x22, 0xf9, 0x03, 0x1e, 0xc8, 0xd2, 0xd4, 0x0f, 0xcf, 0xe8, 0xf9, 0x20, 0xd6, 0xf3, 0x37, 0x54, 0xc2, 0xcc, 0x30, 0xc7, 0xe5, 0x11, 0x06, 0xd8, 0x06, 0x22, 0x4d, 0x03, 0xf3, 0xec, 0xeb, 0xf0, 0x70, 0xf2, 0x27, 0x8a, 0x3a, 0xcb, 0x0d, 0x03, 0xcf, 0x02, 0x02, 0xf3, 0x13, 0xc4, 0x39, 0x12, 0x2d, 0x25, 0x18, 0xe0, 0x1b, 0x02, 0xcd, 0xc0, 0xc5, 0xc9, 0x56, 0xc2, 0xfe, 0xc0, 0xe3, 0x34, 0x4b, 0x2e, 0xdc, 0xfc, 0xf1, 0xdb, 0xd6, 0x19, 0x2b, 0xd9, 0xfc, 0xec, 0x04, 0xf5, 0x0b, 0xd9, 0xe6, 0xea, 0x36, 0x9f, 0x17, 0xcc, 0xed, 0x01, 0x16, 0xdf, 0x62, 0xee, 0xde, 0xd9, 0xe0, 0x24, 0xec, 0xf6, 0x06, 0x21, 0xf7, 0xbb, 0x2b, 0xde, 0xb4, 0xb6, 0x10, 0x32, 0xfc, 0xe2, 0x0b, 0xdf, 0x15, 0xfc, 0x06, 0x0b, 0x1e, 0xf3, 0xe6, 0xd9, 0xe2, 0x01, 0x09, 0xbd, 0xe7, 0xd9, 0x09, 0x1d, 0x54, 0x02, 0x0d, 0xbc, 0xe5, 0xc8, 0xed, 0xf4, 0x1a, 0xa9, 0x12, 0x12, 0xc6, 0xfe, 0x34, 0x44, 0xd2, 0xf2, 0x47, 0x0b, 0xf3, 0xcf, 0xf2, 0x0d, 0xdb, 0xd0, 0x42, 0xc8, 0x13, 0xfc, 0xbe, 0xf4, 0x26, 0x1e, 0xbd, 0x1d, 0xef, 0xc2, 0x12, 0x01, 0xd8, 0x1a, 0xad, 0x1e, 0x18, 0xa5, 0x0e, 0xe8, 0x20, 0xf6, 0x01, 0xb8, 0x3e, 0xbf, 0x1b, 0x14, 0xd4, 0x0b, 0x07, 0xec, 0x26, 0xc2, 0x0a, 0x0a, 0x32, 0x2d, 0xfe, 0xef, 0xd6, 0xf1, 0xcd, 0xe4, 0xbd, 0xdf, 0x13, 0x39, 0x07, 0xfa, 0x2c, 0x11, 0xf3, 0xe0, 0x2c, 0xcb, 0xdd, 0xd5, 0x1a, 0xc5, 0x22, 0xd6, 0x08, 0xe1, 0x0a, 0xa1, 0x14, 0x05, 0x42, 0x17, 0x25, 0x81, 0x23, 0x4a, 0x3e, 0x36, 0xef, 0x3c, 0xd8, 0xfa, 0x4e, 0xdc, 0xc3, 0x4e, 0x2b, 0x87, 0xa4, 0xc3, 0x50, 0x44, 0xc0, 0xf1, 0x27, 0x10, 0xd2, 0x54, 0x01, 0x25, 0xf0, 0x33, 0x1b, 0x26, 0xc2, 0xbf, 0x58, 0x4f, 0xcb, 0x1f, 0xdb, 0x3e, 0x0b, 0xb7, 0xca, 0x5a, 0xfb, 0x62, 0x05, 0xf2, 0x1e, 0x28, 0x46, 0x24, 0x54, 0x9c, 0xba, 0xbc, 0x23, 0xd7, 0x05, 0x56, 0x17, 0x0d, 0x03, 0xc8, 0xc7, 0x60, 0x4a, 0x36, 0x32, 0xe4, 0xcb, 0x2a, 0x45, 0xfe, 0x2c, 0xad, 0xc1, 0xd9, 0xf3, 0x97, 0x0c, 0xfe, 0x12, 0x0b, 0x10, 0xe3, 0x0e, 0xb2, 0x4e, 0xee, 0xce, 0xfa, 0x27, 0x2a, 0xc3, 0x93, 0x46, 0xfb, 0x54, 0x24, 0x1c, 0xcb, 0xf1, 0x20, 0xf3, 0xd0, 0x55, 0xde, 0x0c, 0xeb, 0xda, 0x0c, 0x34, 0xf9, 0x1b, 0x60, 0xd6, 0xd3, 0x28, 0xfd, 0x3a, 0xce, 0xde, 0xfd, 0xd7, 0xe6, 0x2b, 0x00, 0xad, 0x0e, 0x02, 0x4c, 0x31, 0x26, 0x1e, 0xd3, 0x2b, 0x32, 0x20, 0x5c, 0xbc, 0x6b, 0xf5, 0x10, 0xd0, 0x26, 0x5f, 0x23, 0x0d, 0xdd, 0x3a, 0x09, 0xe0, 0x41, 0xf2, 0x27, 0xca, 0xb3, 0x55, 0xda, 0xb1, 0x67, 0xc6, 0xfb, 0x48, 0xe9, 0x01, 0xf3, 0x2c, 0xec, 0xd7, 0x1b, 0xc9, 0x3c, 0xa7, 0x11, 0xce, 0xc5, 0x32, 0x53, 0x03, 0x32, 0x11, 0xcd, 0x1e, 0xa0, 0x0b, 0x53, 0x01, 0xf2, 0xd0, 0x8f, 0x1e, 0x3b, 0x1b, 0xdf, 0xe0, 0xf1, 0x3b, 0xdb, 0x40, 0xe1, 0x59, 0xcd, 0x1d, 0x4a, 0x13, 0x06, 0xaf, 0xe2, 0x04, 0x0a, 0xff, 0xf7, 0xf1, 0x20, 0x11, 0xf0, 0x0f, 0x0b, 0xec, 0xfe, 0x65, 0x8a, 0xaf, 0xf6, 0xc6, 0x4a, 0xce, 0xc0, 0xc5, 0xb2, 0x32, 0x39, 0x54, 0x58, 0xf3, 0xfc, 0x1a, 0xbe, 0x3e, 0x24, 0x04, 0xe3, 0x1b, 0x21, 0xce, 0x96, 0x35, 0x4a, 0xdf, 0x0d, 0x4d, 0x1c, 0xf4, 0xe4, 0xab, 0xe9, 0xc6, 0xc1, 0x51, 0xb2, 0xbb, 0xbb, 0x51, 0xc2, 0x53, 0xb9, 0xcb, 0x3e, 0x23, 0x25, 0xc8, 0xe5, 0x7f, 0x18, 0xfc, 0xc6, 0xc4, 0xeb, 0xf9, 0xf7, 0xa7, 0xd8, 0x13, 0xe0, 0x08, 0xf8, 0x1b, 0x34, 0xfd, 0x4d, 0xf2, 0xea, 0xd6, 0xfd, 0x39, 0xd7, 0xab, 0x9e, 0x58, 0xc7, 0xab, 0xde, 0x1c, 0xf3, 0x2e, 0xfe, 0x18, 0x42, 0x05, 0x18, 0x1e, 0x2c, 0x1e, 0xea, 0x81, 0x36, 0x39, 0xe7, 0xf5, 0x41, 0x48, 0x1a, 0xcc, 0xe9, 0xb0, 0x10, 0x28, 0xfb, 0xb8, 0xda, 0xec, 0x07, 0xf5, 0x3a, 0xe6, 0x1d, 0x34, 0x08, 0x2e, 0x27, 0x07, 0xca, 0xed, 0x01, 0x1d, 0x01, 0xeb, 0x28, 0x16, 0xcf, 0x51, 0x01, 0x14, 0xd6, 0xe9, 0x21, 0xdf, 0xc0, 0x59, 0xe3, 0x25, 0x22, 0x08, 0x27, 0xec, 0xec, 0xe1, 0x2f, 0x1d, 0xb4, 0x45, 0xd8, 0x2b, 0xd6, 0xff, 0x0d, 0x15, 0xe1, 0xe9, 0x17, 0x13, 0x30, 0x30, 0xf5, 0xd9, 0x3d, 0xe5, 0x3b, 0x03, 0xfd, 0x53, 0xbb, 0x04, 0x0b, 0x30, 0x20, 0xfc, 0x23, 0xf6, 0x43, 0x36, 0x1f, 0x3e, 0x2d, 0xc2, 0xc3, 0x22, 0xf8, 0x61, 0xd1, 0xe3, 0x46, 0x01, 0xca, 0x27, 0x45, 0x15, 0xf5, 0xf6, 0x0a, 0xc3, 0xd8, 0x3a, 0xb3, 0x05, 0x1c, 0x19, 0x16, 0xac, 0xdc, 0xc9, 0x15, 0x1e, 0xc1, 0x60, 0x3a, 0x20, 0xfb, 0x50, 0xf2, 0x5d, 0xa7, 0xe8, 0x60, 0xef, 0xfd, 0x0f, 0x32, 0x57, 0xc4, 0xba, 0x36, 0x2a, 0xd8, 0x59, 0x19, 0xe8, 0x2b, 0xdc, 0x40, 0xb9, 0xea, 0x20, 0xdf, 0xe5, 0xcd, 0x46, 0x1e, 0x20, 0x19, 0xf7, 0xd0, 0x41, 0x25, 0x1d, 0x1f, 0xc1, 0xde, 0x0f, 0xbd, 0x05, 0x4b, 0x08, 0xf8, 0xe2, 0x2a, 0x37, 0xdc, 0xb2, 0xbc, 0x4c, 0xec, 0xd2, 0x1c, 0x0c, 0x23, 0xeb, 0xcc, 0x5c, 0x0e, 0xe4, 0x0a, 0x1a, 0xf5, 0x26, 0xe6, 0xdc, 0x23, 0xee, 0xf7, 0xcd, 0xf9, 0x07, 0x47, 0xd3, 0x25, 0x24, 0x2c, 0x08, 0xb6, 0xe4, 0xc6, 0x15, 0xde, 0xf1, 0x1f, 0x02, 0xde, 0x02, 0x26, 0x33, 0x3f, 0xe1, 0xe5, 0x32, 0x0c, 0x3e, 0xbd, 0xd3, 0xec, 0x02, 0xd6, 0x1b, 0x08, 0x31, 0xe0, 0x12, 0x0e, 0xfd, 0xfe, 0x0a, 0xaf, 0x15, 0xf7, 0x08, 0xef, 0xf8, 0x3a, 0x51, 0x04, 0x16, 0xd0, 0x19, 0xde, 0x08, 0xdc, 0x30, 0xa4, 0xf7, 0xf1, 0xfa, 0x29, 0xab, 0x12, 0x38, 0xa9, 0x2b, 0x14, 0xaf, 0x11, 0x4c, 0x0a, 0xd3, 0xd0, 0xc7, 0x69, 0xe1, 0xee, 0x4a, 0x34, 0xe2, 0x07, 0xf0, 0x52, 0x1f, 0x10, 0xda, 0xcd, 0xcb, 0xcd, 0x10, 0x0d, 0xe6, 0xef, 0xf5, 0x01, 0x7c, 0x9c, 0x1d, 0x4c, 0xac, 0xfc, 0x29, 0x1c, 0xb7, 0xfd, 0x00, 0x52, 0xdc, 0xe2, 0xd8, 0x46, 0xdc, 0x1c, 0x11, 0x0e, 0x4e, 0x11, 0xbb, 0x0a, 0xdd, 0x0c, 0x26, 0xf2, 0xd0, 0x2c, 0xf8, 0x22, 0x0e, 0xd9, 0x2d, 0x24, 0x1a, 0x48, 0x49, 0x15, 0x0c, 0xf3, 0xea, 0x3a, 0xeb, 0xe2, 0x11, 0x2f, 0x0e, 0xff, 0xe5, 0xee, 0x2e, 0x53, 0x00, 0x28, 0x04, 0xf3, 0xd3, 0xca, 0xda, 0x14, 0x97, 0xf9, 0xf2, 0xec, 0x00, 0x7f, 0xeb, 0xec, 0x47, 0x02, 0x28, 0xce, 0x15, 0x17, 0xb6, 0xe7, 0x08, 0xe7, 0x0c, 0x35, 0xdd, 0x29, 0x1b, 0xfb, 0xd5, 0xe4, 0xb9, 0xef, 0x19, 0x13, 0x0b, 0xda, 0xf0, 0x36, 0x14, 0xff, 0xf1, 0x53, 0xd6, 0x31, 0x45, 0xe8, 0xdc, 0x1f, 0xbe, 0x14, 0x16, 0x11, 0x14, 0xf1, 0xc3, 0x04, 0xcf, 0x24, 0x59, 0xf4, 0xea, 0x32, 0xff, 0x2b, 0x39, 0x06, 0xef, 0x21, 0x0b, 0x1c, 0xfe, 0xc6, 0x23, 0x40, 0x10, 0xf0, 0x0e, 0x02, 0xeb, 0xbd, 0x24, 0x62, 0xeb, 0xfa, 0xed, 0xed, 0x07, 0x32, 0xdf, 0x18, 0x5f, 0x16, 0x19, 0xea, 0xf2, 0x36, 0xbf, 0xe6, 0xf2, 0x17, 0xe5, 0x16, 0x15, 0x23, 0x0a, 0x60, 0xa9, 0xfa, 0x11, 0xef, 0xd1, 0x0a, 0xdb, 0x14, 0x0b, 0xbe, 0x09, 0x39, 0xce, 0x33, 0x00, 0x3b, 0x12, 0xe0, 0xf6, 0xe5, 0xf8, 0xe8, 0x40, 0x0c, 0x15, 0x49, 0x1b, 0x3d, 0x20, 0x90, 0x40, 0x47, 0xbc, 0x1e, 0x2a, 0x1b, 0x14, 0xd4, 0x04, 0x02, 0xd6, 0xf9, 0x2b, 0xff, 0xf2, 0x0e, 0xe9, 0x36, 0x1a, 0xc5, 0xb5, 0x15, 0xd3, 0xf4, 0xff, 0xe0, 0xe8, 0x1a, 0xc5, 0x1e, 0x46, 0xad, 0x3c, 0xe8, 0xbb, 0x54, 0x39, 0x44, 0xf4, 0xe7, 0xf6, 0x41, 0x26, 0xc0, 0x06, 0x10, 0xe8, 0x23, 0x12, 0xcd, 0x16, 0x60, 0x34, 0x4e, 0x05, 0x0a, 0xf7, 0x30, 0xd8, 0x4d, 0xc7, 0xf2, 0xe7, 0xf6, 0xc9, 0xf1, 0x0b, 0xbe, 0xe8, 0x1a, 0xe9, 0x01, 0xe9, 0x3d, 0xee, 0x3b, 0x53, 0x36, 0xb0, 0x14, 0xf9, 0xec, 0xc7, 0xbb, 0xb2, 0xe6, 0xf4, 0x1f, 0xd4, 0x3d, 0x30, 0xc4, 0xb0, 0x56, 0xfb, 0xd7, 0xcc, 0x4a, 0xe3, 0xfb, 0xe0, 0xcc, 0x17, 0xdf, 0xe5, 0xda, 0xd2, 0x5b, 0xf5, 0xde, 0xe9, 0xfc, 0x0d, 0x0f, 0x6b, 0xb6, 0xc0, 0x45, 0xf9, 0x51, 0xeb, 0x13, 0xe4, 0xf2, 0xe0, 0x23, 0x15, 0xee, 0xbe, 0xce, 0x15, 0x14, 0x60, 0x01, 0xcb, 0xa0, 0x11, 0xce, 0x08, 0x01, 0xfd, 0x20, 0x31, 0x5f, 0x3c, 0xc4, 0x0d, 0xc0, 0xf9, 0xf2, 0xff, 0x28, 0x10, 0x81, 0xd3, 0xc3, 0x23, 0xe8, 0xe2, 0xd1, 0x48, 0xd2, 0x1d, 0xe7, 0xcc, 0xc9, 0xb8, 0xf6, 0x3e, 0x49, 0xd2, 0xd5, 0x1d, 0x19, 0xaf, 0xe2, 0x04, 0xa1, 0xdf, 0xcc, 0x0e, 0x3c, 0x30, 0xeb, 0x20, 0x0d, 0x3b, 0xf0, 0xec, 0x0c, 0xf9, 0x86, 0x4c, 0xc3, 0xc1, 0x1e, 0xb5, 0xcb, 0xdb, 0x02, 0x34, 0x19, 0x1b, 0x24, 0x0e, 0x4a, 0xbb, 0x65, 0xd2, 0x2f, 0xed, 0xb8, 0xc6, 0x3c, 0xf9, 0x39, 0x53, 0x3e, 0x13, 0xcc, 0x04, 0x61, 0xf8, 0xf2, 0x3c, 0x25, 0xa6, 0x1a, 0x21, 0xce, 0xe9, 0xcf, 0x6b, 0x10, 0xeb, 0xf9, 0x1f, 0x28, 0x2b, 0x22, 0xeb, 0xe1, 0xf9, 0x16, 0xfe, 0x35, 0xda, 0x2b, 0x3e, 0x9e, 0x33, 0xd0, 0xcd, 0x3f, 0xcb, 0xc1, 0x03, 0xb6, 0x05, 0xfc, 0xc0, 0x04, 0x12, 0xa0, 0x27, 0xf9, 0xe9, 0xf2, 0x12, 0xe1, 0x2d, 0xf7, 0x35, 0x22, 0xca, 0x15, 0x19, 0xe0, 0xdb, 0xb9, 0x0e, 0x36, 0x39, 0xad, 0xd2, 0x67, 0x10, 0xc8, 0xf5, 0xff, 0x04, 0xf3, 0xe4, 0xc3, 0x11, 0x12, 0x2f, 0x3f, 0x03, 0x21, 0x24, 0xd1, 0x21, 0x5d, 0x0c, 0x11, 0x6f, 0x30, 0xc3, 0x28, 0xcc, 0x36, 0x28, 0x4b, 0x09, 0xca, 0x1f, 0x50, 0x29, 0xeb, 0xc1, 0xe6, 0xa6, 0x05, 0x66, 0x0c, 0xf7, 0xbe, 0x1b, 0x09, 0xad, 0xe6, 0xdd, 0xef, 0x18, 0x1c, 0xd2, 0xb5, 0xf9, 0xbe, 0xa3, 0xda, 0x1d, 0xf1, 0xf5, 0x8c, 0x40, 0xe8, 0xad, 0x38, 0x30, 0xdf, 0x18, 0xec, 0xf7, 0xd7, 0xf1, 0xdb, 0x1b, 0xf8, 0xd7, 0x5a, 0xcd, 0xef, 0x27, 0x0f, 0xce, 0xdb, 0xf9, 0x1a, 0xff, 0x18, 0x40, 0x0a, 0x3e, 0xf7, 0xad, 0x04, 0x17, 0xc6, 0x1e, 0x23, 0xed, 0xb0, 0xe3, 0xcb, 0x39, 0xc0, 0x2a, 0xf4, 0xd9, 0x07, 0xf9, 0x65, 0xe2, 0x39, 0x20, 0xf5, 0x0e, 0x15, 0xe3, 0x3f, 0x0e, 0x16, 0xd8, 0x1b, 0x0d, 0x3d, 0xbc, 0x1e, 0x13, 0x30, 0xdc, 0x18, 0xae, 0xdd, 0xae, 0xf6, 0x19, 0xac, 0xa1, 0x4d, 0xac, 0x5c, 0x6b, 0x25, 0xe0, 0x17, 0x0b, 0xf0, 0x1e, 0xe5, 0x32, 0x3e, 0x2b, 0x32, 0xe1, 0xc2, 0xea, 0xf4, 0xe6, 0x04, 0x45, 0xbd, 0xea, 0xb5, 0x2a, 0x65, 0x24, 0xd0, 0x50, 0x9e, 0x0b, 0x21, 0xe4, 0xe9, 0xe0, 0x5b, 0xcd, 0x25, 0xf3, 0x2b, 0xb6, 0x13, 0x31, 0xd3, 0xce, 0x0c, 0x2e, 0xfb, 0x6d, 0x1e, 0xef, 0x5b, 0xd8, 0xc1, 0x1e, 0x24, 0x96, 0xd2, 0xcf, 0xe8, 0x25, 0xde, 0xf9, 0x10, 0xb4, 0x20, 0x11, 0x06, 0xd5, 0x54, 0xf0, 0x4c, 0xba, 0x11, 0x1a, 0xe0, 0xe6, 0x41, 0x2d, 0xec, 0x09, 0x30, 0xb6, 0x40, 0xfb, 0x02, 0x22, 0x05, 0xd7, 0x17, 0xcf, 0xd8, 0x50, 0x2c, 0xe9, 0xf0, 0x0a, 0x0d, 0x23, 0xe1, 0xc0, 0xe5, 0xeb, 0x4c, 0x31, 0x37, 0xd5, 0x15, 0xed, 0xca, 0xf5, 0x06, 0x05, 0x41, 0x49, 0xd1, 0xf1, 0xda, 0x51, 0xd0, 0xf9, 0x42, 0xb5, 0xa8, 0x2d, 0xfd, 0x3d, 0x0c, 0xea, 0x23, 0x37, 0x6d, 0xc2, 0xe8, 0x26, 0x09, 0xf2, 0xbf, 0xe4, 0xf1, 0x10, 0x1d, 0xd1, 0xeb, 0xf5, 0x42, 0x8e, 0x49, 0x0e, 0x35, 0x1b, 0x51, 0xef, 0xa2, 0x2e, 0xf2, 0x2f, 0xc9, 0x01, 0xe3, 0x21, 0x2b, 0x07, 0x6b, 0xb1, 0x36, 0x0f, 0x7f, 0x05, 0xde, 0x1c, 0xe5, 0xef, 0x3a, 0xde, 0xb3, 0xe3, 0xea, 0xf9, 0x29, 0xfe, 0x17, 0xbe, 0x0d, 0xd1, 0x06, 0xf8, 0x1a, 0xdf, 0x13, 0xc8, 0x08, 0xd4, 0x04, 0x5c, 0xc2, 0xc7, 0x56, 0x1c, 0x21, 0xb4, 0xf6, 0xf9, 0xe1, 0x37, 0x35, 0xea, 0xb6, 0xcc, 0xe4, 0x4b, 0x24, 0x36, 0x04, 0x00, 0xcb, 0xd6, 0x0b, 0x18, 0x13, 0xe0, 0x20, 0x3d, 0xfe, 0x0f, 0x22, 0xf5, 0xab, 0x4a, 0xe5, 0xe2, 0xf5, 0x5c, 0x06, 0x27, 0xf6, 0xf0, 0x27, 0x04, 0xee, 0x28, 0xe9, 0x1c, 0x00, 0xcd, 0xfa, 0xa5, 0xf3, 0xaa, 0x55, 0x51, 0xf2, 0x1c, 0xf5, 0x4f, 0xe0, 0xf4, 0xf7, 0x93, 0xdc, 0x27, 0xc1, 0xcc, 0xf6, 0x21, 0xe8, 0xe8, 0x0f, 0xcf, 0x1c, 0x3e, 0xf3, 0x63, 0xec, 0xfb, 0xf6, 0x13, 0x01, 0xa0, 0xd7, 0xe8, 0x41, 0xeb, 0x18, 0x27, 0xaa, 0xdc, 0xdf, 0xcb, 0x0e, 0xc3, 0xdd, 0xf9, 0x02, 0xe8, 0x20, 0x23, 0xe5, 0xd1, 0xfd, 0xf6, 0xeb, 0x16, 0x3d, 0x2f, 0x00, 0x08, 0xec, 0x21, 0x2a, 0xfa, 0xd4, 0xf0, 0xb6, 0x27, 0x2b, 0xbc, 0x06, 0x03, 0xf3, 0x54, 0xdf, 0xd8, 0xf4, 0x0a, 0xb8, 0xfc, 0xf1, 0x76, 0xca, 0xd3, 0xd8, 0x93, 0x45, 0x0e, 0xc0, 0x61, 0x2b, 0xf8, 0x9a, 0xc5, 0x26, 0x20, 0x9f, 0xdf, 0x65, 0x5a, 0xf8, 0x17, 0x16, 0x19, 0xbf, 0xf7, 0xe9, 0xe7, 0xfa, 0x69, 0xe8, 0xd1, 0xeb, 0x7d, 0xe7, 0x1d, 0x0c, 0xe8, 0x15, 0x46, 0x3e, 0x18, 0xb1, 0xef, 0x34, 0x10, 0x3a, 0xf4, 0x99, 0x0f, 0x7f, 0x11, 0x18, 0xc5, 0x96, 0x08, 0xef, 0x03, 0xd9, 0x9e, 0x18, 0xf2, 0x25, 0xf6, 0xde, 0x01, 0xd7, 0x1b, 0x15, 0x34, 0x21, 0x57, 0x36, 0x22, 0x94, 0x25, 0x23, 0xde, 0xf4, 0xf2, 0xc6, 0x46, 0xe6, 0xfc, 0x07, 0xc0, 0xfe, 0x65, 0x05, 0xef, 0x2f, 0xdc, 0x9d, 0x51, 0xf9, 0xc4, 0xd1, 0x3c, 0xac, 0x26, 0x13, 0xf9, 0x1c, 0x22, 0xa0, 0x34, 0x3a, 0xe8, 0x97, 0x28, 0xf3, 0xbf, 0xb6, 0xdc, 0x32, 0x26, 0xea, 0x1b, 0xdc, 0x57, 0xe3, 0xf8, 0xf5, 0xc9, 0xc6, 0x34, 0xe5, 0xf6, 0x2a, 0x6f, 0xe4, 0xde, 0xf3, 0xe0, 0x4f, 0x1b, 0xe4, 0x36, 0x11, 0x2f, 0x16, 0xe8, 0xeb, 0xa6, 0x9b, 0xc5, 0x2a, 0xf4, 0x99, 0xc6, 0xa5, 0x01, 0xd0, 0xdd, 0x47, 0xc5, 0xe9, 0x05, 0xf4, 0xfb, 0x29, 0x52, 0x16, 0xd5, 0xfb, 0x21, 0x11, 0x55, 0x27, 0x20, 0xac, 0x2d, 0xed, 0xce, 0xc7, 0x0b, 0xfb, 0xf7, 0xbe, 0x36, 0xf1, 0xc5, 0x20, 0x51, 0xf5, 0xf5, 0xe1, 0xfe, 0xe6, 0x14, 0x48, 0x64, 0xd9, 0xe8, 0xeb, 0xcd, 0x25, 0xde, 0x81, 0x13, 0xe2, 0xf8, 0xf9, 0x22, 0xd2, 0xf5, 0xff, 0xba, 0xaf, 0x13, 0xe3, 0x4e, 0x44, 0xfc, 0x17, 0x42, 0x06, 0xbe, 0x05, 0x16, 0xd2, 0xf1, 0x34, 0x2c, 0xc9, 0x2e, 0x05, 0xf7, 0x5c, 0xf3, 0x9f, 0x09, 0xe5, 0xae, 0xd3, 0x1a, 0xa7, 0xeb, 0x39, 0xde, 0xee, 0x49, 0xeb, 0x1d, 0x1a, 0x07, 0xd9, 0xd1, 0x35, 0x00, 0xd0, 0x2f, 0x33, 0x0a, 0xfa, 0x16, 0x00, 0x2f, 0xf2, 0x11, 0x39, 0x35, 0xf8, 0x5b, 0xea, 0x04, 0x08, 0x1f, 0xc7, 0xc8, 0x5b, 0xcb, 0xd8, 0xf6, 0x12, 0xf0, 0x1f, 0xc8, 0xf6, 0x2c, 0xff, 0xca, 0xca, 0x1a, 0xd3, 0xd3, 0x0c, 0x5a, 0xed, 0xed, 0x51, 0xe0, 0x7b, 0x10, 0xc1, 0x2f, 0x30, 0xff, 0xfb, 0x2e, 0xce, 0xde, 0x16, 0xb1, 0xf6, 0x69, 0xd5, 0x40, 0x23, 0xfb, 0xe5, 0x19, 0xd6, 0xe9, 0xdb, 0x4a, 0xd0, 0xf4, 0xef, 0x1b, 0xf0, 0xd9, 0xe5, 0xcc, 0x15, 0x3e, 0xc4, 0x00, 0x3d, 0xd8, 0x10, 0xfa, 0xd6, 0xb3, 0x0c, 0xee, 0xfb, 0xed, 0x0d, 0x6b, 0x0b, 0xc5, 0xec, 0x06, 0x1f, 0xe9, 0x09, 0x3b, 0x32, 0x5f, 0xfd, 0x41, 0x23, 0xd8, 0xf5, 0x08, 0x14, 0x22, 0x12, 0x1b, 0x35, 0xd1, 0x4b, 0xc2, 0x0b, 0xe2, 0x1a, 0xcb, 0x25, 0xe7, 0x2c, 0x3c, 0x57, 0xc4, 0x1f, 0x5b, 0x0c, 0xf0, 0xd4, 0xed, 0x0a, 0x0a, 0xf8, 0x5d, 0xd8, 0x0d, 0x30, 0xe8, 0x09, 0xfb, 0x9f, 0x36, 0x53, 0xda, 0xdc, 0x2b, 0xf0, 0xc0, 0x02, 0xee, 0x0c, 0x61, 0xab, 0x5b, 0xfa, 0xbf, 0x21, 0x00, 0x3a, 0xbb, 0xd9, 0x52, 0xf5, 0x35, 0x2d, 0x4b, 0x21, 0xf1, 0x01, 0xe2, 0x56, 0x07, 0xb3, 0x2b, 0x45, 0xe5, 0x15, 0x2c, 0xe3, 0xa5, 0x04, 0xf9, 0x16, 0x2e, 0xe1, 0x15, 0x2b, 0x2d, 0xdf, 0xe5, 0x21, 0xc8, 0xbd, 0x5f, 0x31, 0x05, 0xf2, 0x0c, 0xe4, 0x48, 0xef, 0xda, 0xf0, 0x0b, 0xbc, 0x52, 0x52, 0xb7, 0xf9, 0x24, 0xf8, 0x11, 0x42, 0xcb, 0xed, 0xd4, 0xfa, 0xe8, 0xd5, 0x4b, 0x5c, 0xdc, 0x2a, 0x3e, 0x20, 0x1d, 0xf5, 0xe3, 0xd9, 0x0c, 0x0b, 0x1e, 0x2e, 0x20, 0x2d, 0xcf, 0x34, 0xb0, 0xe3, 0x12, 0x1e, 0xd2, 0xe7, 0xf8, 0x0a, 0xda, 0x04, 0x3b, 0x0c, 0x22, 0x0f, 0x0d, 0xda, 0x31, 0x03, 0x22, 0x13, 0xd2, 0x7f, 0x0e, 0xec, 0xf0, 0x0f, 0xef, 0xc5, 0xf4, 0xe4, 0xb2, 0x36, 0x05, 0x0b, 0x26, 0x47, 0x22, 0x33, 0xea, 0x38, 0xcb, 0xd5, 0x0f, 0x29, 0xe8, 0xe6, 0x3f, 0x78, 0x34, 0x19, 0xd9, 0x5e, 0xf0, 0x30, 0x0b, 0x1c, 0x20, 0xf5, 0xc8, 0x05, 0xd8, 0x37, 0xeb, 0x2b, 0xf4, 0xcd, 0x02, 0xb8, 0xed, 0xe5, 0xa1, 0xdf, 0x26, 0x1f, 0xdd, 0x97, 0x03, 0x37, 0x18, 0xf8, 0x3f, 0x23, 0x32, 0x1d, 0xfe, 0x2d, 0xc6, 0x2b, 0x3f, 0xd9, 0xc2, 0x33, 0xdf, 0xe6, 0xd5, 0x0c, 0x06, 0x15, 0xad, 0xd8, 0x37, 0xb6, 0xfb, 0xb6, 0xd6, 0x10, 0x30, 0xfc, 0xf2, 0x42, 0x10, 0xf3, 0xdb, 0x40, 0x33, 0x36, 0x0f, 0x50, 0x3b, 0xad, 0x04, 0xe7, 0x53, 0x0f, 0x20, 0xfe, 0x08, 0x67, 0xc3, 0x03, 0xbd, 0x1f, 0xdd, 0xff, 0xf4, 0xbf, 0x24, 0x13, 0xc0, 0xbe, 0x36, 0xfe, 0xe0, 0x01, 0x4b, 0xdb, 0xf3, 0x1f, 0x24, 0x2e, 0xca, 0x34, 0xb4, 0x95, 0xe1, 0x40, 0x17, 0x10, 0x99, 0x24, 0x20, 0x2a, 0xaa, 0x22, 0xb1, 0x03, 0x16, 0xc4, 0x18, 0x1e, 0x34, 0xb6, 0x24, 0xcc, 0x0d, 0x6e, 0xea, 0x3f, 0x15, 0x6e, 0xe9, 0x5b, 0xa9, 0xfb, 0x69, 0xde, 0xbe, 0x25, 0xda, 0xeb, 0xfa, 0x03, 0xff, 0xc0, 0xe4, 0x2f, 0xeb, 0xa7, 0x55, 0xc3, 0xd8, 0xae, 0xee, 0x13, 0x0b, 0xf2, 0x27, 0xbc, 0x30, 0x12, 0xcb, 0xed, 0xe6, 0x48, 0x3c, 0xfd, 0x4f, 0xc1, 0xfc, 0xee, 0x25, 0xe7, 0xcf, 0x1d, 0x2a, 0xd5, 0xf1, 0x39, 0xcf, 0x16, 0xbb, 0x3c, 0xe5, 0xf6, 0xdb, 0x2c, 0xea, 0x2b, 0x43, 0x51, 0xf8, 0x13, 0x2e, 0x5d, 0xec, 0x4a, 0xf7, 0x16, 0xe4, 0xfe, 0x9f, 0x48, 0x47, 0x1c, 0x15, 0xc6, 0x15, 0x12, 0xfd, 0x13, 0xf1, 0xe1, 0xcc, 0xe8, 0xf0, 0x1a, 0x1e, 0xc7, 0x2d, 0xf2, 0xd6, 0xf0, 0x29, 0xe1, 0xfc, 0xa7, 0x14, 0xd4, 0xcd, 0xfb, 0x56, 0xe0, 0x41, 0x34, 0x28, 0x43, 0x22, 0xe6, 0xe0, 0xdd, 0x08, 0xcf, 0x36, 0xba, 0xd9, 0xfd, 0xda, 0x1f, 0x37, 0xb9, 0xf7, 0x4b, 0xaf, 0x58, 0x39, 0xe1, 0x1c, 0xd2, 0x19, 0xf4, 0xeb, 0xc6, 0x12, 0x01, 0x03, 0x34, 0x0e, 0x03, 0x3f, 0xfc, 0xc2, 0xb3, 0xe4, 0x13, 0x60, 0xf2, 0x23, 0xcd, 0xe3, 0xfa, 0x40, 0xe7, 0x31, 0x2b, 0x02, 0xe6, 0x49, 0xfc, 0xcd, 0xef, 0xd7, 0x0b, 0x14, 0xcd, 0xf9, 0xe8, 0x2a, 0x19, 0x3a, 0x07, 0x2a, 0xc3, 0xe5, 0xfd, 0xee, 0xd5, 0x27, 0xcb, 0xf6, 0x40, 0x0e, 0x26, 0xe3, 0xf5, 0x0d, 0x1a, 0xec, 0x4f, 0x11, 0xe7, 0x0f, 0xaa, 0x0e, 0xb8, 0xf5, 0xcc, 0x50, 0xf4, 0x1c, 0x43, 0xf8, 0x37, 0x41, 0xe5, 0xf5, 0xf0, 0xd2, 0xd0, 0x37, 0xc9, 0x18, 0x04, 0xc5, 0x4d, 0x69, 0xcc, 0x2a, 0x50, 0xc9, 0x43, 0x2c, 0xec, 0x19, 0xa1, 0x11, 0xb9, 0xf2, 0x03, 0x0b, 0xdf, 0xf8, 0x4a, 0xe4, 0x26, 0x22, 0xd6, 0xfd, 0x18, 0xbd, 0xec, 0x37, 0x0a, 0x13, 0xfb, 0xe4, 0x18, 0x3f, 0xdb, 0x26, 0x35, 0xf9, 0xcf, 0x58, 0xb4, 0x0b, 0xf0, 0x35, 0x11, 0x23, 0xee, 0x12, 0xf2, 0x09, 0x2b, 0xf7, 0xb1, 0x02, 0x02, 0xd7, 0x0f, 0x33, 0xe2, 0xf2, 0x21, 0xd1, 0x31, 0xcc, 0x1a, 0xef, 0x01, 0x31, 0x21, 0x09, 0x47, 0x47, 0xb7, 0xd8, 0xae, 0x00, 0xc0, 0x0c, 0xf3, 0x22, 0xf4, 0xfb, 0x13, 0x37, 0x0e, 0xec, 0xde, 0xce, 0x08, 0xeb, 0xfe, 0x7f, 0xc1, 0x1d, 0x15, 0x29, 0xf4, 0x67, 0xf5, 0xff, 0x18, 0xdb, 0x25, 0x32, 0xec, 0xca, 0xe9, 0x4f, 0xb9, 0xfe, 0x03, 0x1d, 0xd1, 0x26, 0xfa, 0x31, 0x08, 0x52, 0xda, 0xe7, 0x0c, 0xcd, 0x14, 0x22, 0xf5, 0x0d, 0xd3, 0x1a, 0xe5, 0x6f, 0xdf, 0x23, 0x17, 0xfa, 0x0e, 0x19, 0xe1, 0xf1, 0xbc, 0xf4, 0x4f, 0x72, 0x04, 0x2c, 0x06, 0x5f, 0xef, 0x24, 0xf9, 0x2c, 0xdb, 0xea, 0x18, 0x01, 0xcf, 0xef, 0x10, 0x04, 0x4f, 0xdb, 0x1e, 0xf5, 0xde, 0x1a, 0xf7, 0xad, 0x35, 0x3f, 0xdf, 0xfa, 0xd0, 0xee, 0xc3, 0x31, 0x2c, 0x0a, 0xec, 0x25, 0x1c, 0x3b, 0xfa, 0x55, 0xbf, 0xce, 0xfc, 0xf1, 0xdc, 0x5a, 0x9b, 0x22, 0x1e, 0xc2, 0x39, 0x29, 0x05, 0x49, 0x2b, 0xbf, 0x59, 0xe8, 0xb9, 0xd1, 0xa8, 0x05, 0xaa, 0xe6, 0x07, 0xf4, 0x14, 0x26, 0x2a, 0x13, 0xfe, 0x54, 0xe0, 0xbd, 0x1a, 0xef, 0xfb, 0x7f, 0xbf, 0x01, 0x06, 0x03, 0x2a, 0x14, 0x03, 0x1f, 0xe9, 0x2d, 0x18, 0x18, 0xab, 0x03, 0xe5, 0xe4, 0x28, 0x33, 0x36, 0xe1, 0x0c, 0xf8, 0xc0, 0x27, 0xcc, 0x40, 0xb2, 0xef, 0xca, 0x18, 0x02, 0x38, 0xb9, 0x19, 0x44, 0xda, 0x5f, 0xec, 0x05, 0x3b, 0x13, 0xbc, 0x2b, 0x1f, 0xa2, 0x37, 0xa2, 0xf0, 0xc6, 0xe0, 0x30, 0xee, 0xf5, 0x01, 0x21, 0x37, 0x13, 0x4b, 0xd9, 0xe0, 0xe4, 0x41, 0xf9, 0x48, 0xc9, 0xc4, 0x3b, 0xfb, 0x06, 0x36, 0xd5, 0x50, 0x30, 0xed, 0x35, 0x36, 0xe3, 0x1a, 0x9c, 0x0f, 0xcc, 0x3b, 0x21, 0xf2, 0x25, 0xda, 0xe8, 0x1b, 0x2e, 0x3a, 0x9a, 0x0c, 0x37, 0x0c, 0xbb, 0x1f, 0xc7, 0x0d, 0x0b, 0xad, 0x17, 0x46, 0x53, 0x17, 0xaf, 0xf9, 0x00, 0xe5, 0x08, 0x07, 0xd7, 0xf8, 0x17, 0x21, 0x01, 0xc2, 0x20, 0x29, 0x16, 0x00, 0x9b, 0x40, 0x08, 0x0b, 0xe8, 0xd0, 0x00, 0x3d, 0xbc, 0x00, 0x52, 0xe8, 0x33, 0xe7, 0xe1, 0x43, 0xe8, 0xcb, 0x71, 0x12, 0xd8, 0xe7, 0xd4, 0xaa, 0xcf, 0xff, 0xef, 0x15, 0x42, 0x0b, 0xc4, 0x23, 0x25, 0x5e, 0xae, 0xcb, 0xfb, 0x2c, 0xf0, 0x50, 0x91, 0xee, 0xe2, 0xd1, 0x4d, 0x50, 0xe8, 0x2b, 0x2a, 0xb6, 0x5a, 0x2f, 0xfa, 0x20, 0xcd, 0xa3, 0xd5, 0x0d, 0xff, 0xe8, 0xf0, 0xd0, 0x16, 0xe8, 0x3c, 0x5a, 0xe7, 0xbd, 0xcf, 0x26, 0xfb, 0x65, 0x97, 0xe9, 0x1c, 0xf2, 0x21, 0x53, 0x30, 0x03, 0xb6, 0x08, 0xc6, 0xec, 0x91, 0x01, 0x04, 0xf5, 0x34, 0xf9, 0xf5, 0xf2, 0xf4, 0xec, 0x35, 0x17, 0xe9, 0x62, 0xd9, 0x36, 0x18, 0xff, 0xd7, 0x66, 0xea, 0x0a, 0x54, 0x31, 0x4d, 0xe2, 0xdc, 0xf2, 0x2b, 0x8e, 0x39, 0xf4, 0xcf, 0xf8, 0xd7, 0x0b, 0x0b, 0xe8, 0x14, 0xec, 0xb9, 0x03, 0x08, 0xa1, 0xb0, 0x1d, 0xd6, 0xfb, 0x1a, 0x14, 0xfa, 0xc3, 0xd3, 0xbb, 0xd3, 0x28, 0x10, 0x34, 0xed, 0x28, 0x20, 0xa7, 0x07, 0x27, 0xf8, 0x15, 0x08, 0x3b, 0xdd, 0x0f, 0xfb, 0xfd, 0xbb, 0xd2, 0xc3, 0xfe, 0x1e, 0x75, 0xe2, 0x12, 0x8e, 0xe4, 0xb0, 0x09, 0x20, 0xfc, 0x35, 0x27, 0xf1, 0xe8, 0x33, 0x15, 0x31, 0xf5, 0xf4, 0xfd, 0xf5, 0xf6, 0xcf, 0xeb, 0x09, 0xe7, 0xd3, 0xf2, 0x30, 0x07, 0xf1, 0x0c, 0xea, 0x65, 0xe1, 0x42, 0xd7, 0xc7, 0x19, 0x1f, 0x12, 0xa7, 0x49, 0xfa, 0x37, 0xfd, 0x1b, 0xcf, 0xfb, 0x81, 0xea, 0xea, 0xde, 0xd9, 0x22, 0xf3, 0xd1, 0x05, 0x2a, 0x16, 0xf0, 0x47, 0x23, 0xee, 0x1d, 0xf1, 0xc0, 0x17, 0xd5, 0x21, 0xda, 0xd5, 0xdf, 0xca, 0xf4, 0x4b, 0xf5, 0x16, 0x1e, 0x0a, 0x63, 0xd5, 0x51, 0xf6, 0xf2, 0xf0, 0xef, 0xff, 0xb0, 0xd1, 0x44, 0x02, 0xb0, 0xe1, 0xd9, 0x20, 0xdb, 0x16, 0xda, 0xe8, 0xe2, 0x06, 0xdb, 0x25, 0xc7, 0xbf, 0x16, 0xde, 0xdf, 0xf9, 0x3a, 0x0f, 0xe0, 0xeb, 0xe4, 0x00, 0x12, 0xe9, 0xd2, 0x9c, 0x32, 0x4a, 0x45, 0xf4, 0x21, 0x2c, 0x40, 0x16, 0xf7, 0x3c, 0x21, 0x12, 0xd6, 0x04, 0xcd, 0x25, 0xe6, 0xb4, 0x1b, 0x09, 0xdb, 0xec, 0xda, 0xd9, 0x2d, 0x97, 0xf5, 0x05, 0x9e, 0x0c, 0x09, 0xfd, 0x0e, 0xc7, 0x46, 0xe1, 0xe2, 0x3a, 0x11, 0xe8, 0xd3, 0xd9, 0x0c, 0xf7, 0xd3, 0x2b, 0xf9, 0xcb, 0xdb, 0xda, 0xeb, 0x40, 0x08, 0xce, 0xf7, 0x6c, 0x22, 0x93, 0xf6, 0xe9, 0x2c, 0xef, 0xcd, 0xd1, 0xde, 0xda, 0x66, 0x20, 0x08, 0x1e, 0xe1, 0x1c, 0xfd, 0x28, 0x19, 0xf4, 0xdb, 0xfa, 0x0a, 0x2d, 0xfb, 0xfb, 0xd3, 0xef, 0xd8, 0x16, 0x1b, 0x0a, 0x22, 0x07, 0xf4, 0x9d, 0x1c, 0x02, 0xdc, 0xbf, 0xff, 0x4a, 0xec, 0xfe, 0x1f, 0x10, 0x0b, 0x21, 0xbf, 0x75, 0xec, 0x00, 0xee, 0xc1, 0xc7, 0x17, 0x20, 0xe7, 0x2e, 0x3d, 0xf1, 0x20, 0xc7, 0xbb, 0x2e, 0x04, 0xef, 0xf2, 0x28, 0xb7, 0xf2, 0x40, 0x23, 0xad, 0x06, 0xfb, 0x20, 0xe5, 0x3c, 0x1b, 0x26, 0x3a, 0xe7, 0x1d, 0xf7, 0xe8, 0x7e, 0xdb, 0xca, 0x2d, 0xbc, 0xee, 0x25, 0xab, 0xd5, 0x04, 0xf0, 0x0a, 0xfc, 0x19, 0x39, 0xf6, 0xed, 0x46, 0x63, 0xe7, 0x06, 0xfe, 0xf3, 0xcf, 0x46, 0x3f, 0x0d, 0x3d, 0x38, 0x1b, 0x1a, 0xb3, 0x5e, 0xdd, 0xdb, 0x22, 0xdb, 0xdc, 0xfd, 0xe0, 0xf6, 0x1e, 0xcb, 0x07, 0xc0, 0x33, 0x17, 0xe4, 0xeb, 0x66, 0x1c, 0xeb, 0x6e, 0x48, 0xcc, 0xf6, 0x2d, 0xf7, 0x1f, 0x07, 0x06, 0xe4, 0x17, 0xf6, 0x36, 0x1e, 0xf7, 0xcc, 0x08, 0xb4, 0xd0, 0x1a, 0xd0, 0xdc, 0xfa, 0x23, 0xaf, 0xf7, 0x4e, 0x29, 0x29, 0x07, 0xed, 0x0b, 0x04, 0xc5, 0xeb, 0xe2, 0xd6, 0xe6, 0x43, 0xdc, 0xb4, 0xb4, 0xff, 0xdb, 0x18, 0x06, 0xb4, 0xef, 0xaf, 0x1c, 0x22, 0xec, 0xe5, 0x1a, 0xb9, 0x47, 0xab, 0x34, 0x43, 0xf1, 0x3f, 0xdb, 0x08, 0xc3, 0xf2, 0xc6, 0xd7, 0x04, 0x20, 0x11, 0x1c, 0x05, 0xf6, 0xed, 0x2b, 0xfe, 0x75, 0xd5, 0x3d, 0xee, 0x3b, 0x02, 0x1e, 0x9d, 0xf5, 0xbc, 0x01, 0x27, 0x07, 0xc2, 0x31, 0x32, 0xef, 0xf8, 0x24, 0xe6, 0xfe, 0xdc, 0x17, 0x23, 0x13, 0xed, 0x08, 0x58, 0xc1, 0x0f, 0x16, 0xf9, 0xd0, 0x3e, 0xde, 0xc7, 0xf9, 0xcb, 0xf3, 0x2d, 0xfe, 0xbb, 0xf4, 0xda, 0xe5, 0x0c, 0x4d, 0x11, 0xff, 0x3b, 0x40, 0xcb, 0x1e, 0x47, 0x05, 0xe5, 0xeb, 0x53, 0x27, 0xe7, 0x1b, 0xf2, 0x2c, 0x40, 0x7f, 0x0e, 0x06, 0xc0, 0x0d, 0xdc, 0x46, 0xcd, 0x14, 0xb7, 0x34, 0x2a, 0x07, 0xe3, 0x0d, 0xc8, 0x46, 0x19, 0xf2, 0x14, 0x3e, 0x00, 0xec, 0x99, 0x19, 0x5c, 0x74, 0xe6, 0xd8, 0xd8, 0x2a, 0xaf, 0x6a, 0x38, 0x03, 0x2a, 0x15, 0x34, 0x01, 0xcf, 0xd7, 0xfa, 0xe8, 0xf3, 0xee, 0x16, 0x28, 0x19, 0xfc, 0x15, 0x1a, 0xd3, 0x5c, 0x2a, 0xea, 0x27, 0xbb, 0x2b, 0x31, 0x22, 0xcc, 0xcc, 0x29, 0xf4, 0x0b, 0x27, 0xb3, 0xe1, 0xb3, 0xc9, 0x0a, 0xca, 0x34, 0xe7, 0xdb, 0x1e, 0x0b, 0x00, 0xf3, 0xd4, 0xed, 0x0e, 0x3f, 0xe7, 0xfa, 0xed, 0x2a, 0xef, 0x4e, 0xcf, 0xc2, 0xec, 0xf3, 0xbf, 0xed, 0xf9, 0x32, 0x2d, 0x34, 0x54, 0x1f, 0x0f, 0x3b, 0xf7, 0xbd, 0xcf, 0xd5, 0xe1, 0x12, 0xd2, 0xfc, 0xde, 0xee, 0x18, 0x34, 0x8f, 0x28, 0x23, 0x2a, 0xea, 0xfa, 0xf8, 0x14, 0xe9, 0x01, 0x9f, 0xe2, 0xb8, 0x38, 0x24, 0x0e, 0x4f, 0xec, 0x24, 0x0d, 0x11, 0xa8, 0x1e, 0x19, 0x09, 0x1e, 0x2b, 0x2a, 0xc5, 0xe9, 0xbf, 0x49, 0xc0, 0xff, 0xfd, 0x13, 0x2e, 0x1b, 0xf2, 0xfc, 0xb6, 0x23, 0xe7, 0xd6, 0x0d, 0xf6, 0x40, 0x25, 0x10, 0xf5, 0xdd, 0xfe, 0x01, 0x03, 0xe2, 0x2b, 0xed, 0x16, 0xd0, 0xf4, 0xc5, 0xff, 0xf2, 0x30, 0x81, 0x3e, 0xf2, 0x2b, 0xf3, 0xfc, 0x20, 0xf4, 0x01, 0x35, 0xc0, 0x35, 0xe7, 0xd1, 0xf3, 0x67, 0x29, 0x06, 0xce, 0x10, 0x06, 0xcf, 0xd1, 0xef, 0xf7, 0xe6, 0xe6, 0x01, 0xf6, 0x06, 0x18, 0x32, 0xa8, 0x2f, 0xfa, 0xfa, 0xdf, 0x0b, 0x13, 0xf9, 0xf8, 0x3e, 0xcf, 0xfd, 0xfe, 0x24, 0xdd, 0x4d, 0x2a, 0x15, 0x1b, 0x3e, 0x00, 0xa5, 0xeb, 0xe6, 0x07, 0x17, 0xf4, 0x21, 0xfe, 0x26, 0xe1, 0x2f, 0x05, 0xfa, 0x43, 0x09, 0x01, 0x3f, 0xff, 0x18, 0xd9, 0xf6, 0xa0, 0xd3, 0xdb, 0x22, 0xd6, 0x0f, 0x22, 0x0e, 0xcb, 0x25, 0x0d, 0xb8, 0xec, 0xe1, 0x0b, 0x01, 0xfa, 0xf6, 0xfc, 0xf2, 0xdf, 0xe1, 0xcb, 0x19, 0x2b, 0x01, 0xa5, 0xfa, 0xf1, 0xf0, 0xef, 0x17, 0xe4, 0x1f, 0x9c, 0xda, 0x19, 0x62, 0x54, 0xe1, 0x1b, 0x46, 0x08, 0xd9, 0x05, 0xdc, 0xec, 0x06, 0xee, 0x0c, 0xf7, 0x03, 0xb8, 0xe9, 0x91, 0x23, 0x04, 0x45, 0xe0, 0x16, 0x1f, 0xe8, 0xf4, 0xe2, 0xe2, 0xdf, 0xc2, 0x28, 0xf0, 0x4a, 0x41, 0x0d, 0x2c, 0x46, 0x0d, 0xb9, 0xe7, 0xd8, 0xe4, 0x14, 0xda, 0x13, 0x11, 0xf8, 0xfb, 0x2b, 0xdc, 0x42, 0x19, 0x46, 0x1f, 0xff, 0x22, 0xe4, 0xc9, 0x17, 0xa2, 0xa7, 0x53, 0xf0, 0xe5, 0x08, 0x06, 0xdb, 0xde, 0x08, 0x30, 0xce, 0xd0, 0xf8, 0xee, 0xfb, 0xd3, 0x24, 0x08, 0xf4, 0x97, 0xad, 0x54, 0xdf, 0x9e, 0x0e, 0xf0, 0xf7, 0x2a, 0x01, 0xfa, 0xf0, 0x10, 0xe9, 0x5f, 0xe9, 0x3e, 0xed, 0xea, 0x04, 0x02, 0xc4, 0xca, 0x74, 0x20, 0xc2, 0x31, 0x03, 0xaf, 0x25, 0x2b, 0x06, 0xf7, 0x03, 0xf0, 0x10, 0xbb, 0xf9, 0x20, 0xf0, 0x10, 0xbe, 0x1a, 0x45, 0x56, 0x2f, 0x73, 0xa9, 0x10, 0xfb, 0xcc, 0x55, 0x0f, 0x17, 0xc3, 0x67, 0xf3, 0xff, 0x21, 0xf9, 0x81, 0xf9, 0x1a, 0x0f, 0x27, 0x21, 0xd4, 0x58, 0xb4, 0x33, 0xfe, 0xd8, 0xf4, 0xe9, 0x12, 0xcf, 0x4c, 0xca, 0x1d, 0x04, 0xf5, 0xf2, 0xdf, 0xdf, 0x00, 0xfe, 0x1f, 0xd8, 0x1b, 0xee, 0x4b, 0x44, 0xfa, 0xef, 0xf6, 0xc6, 0xd0, 0xf2, 0xe4, 0xb5, 0xa1, 0x31, 0x49, 0x01, 0x16, 0xc5, 0x3e, 0x37, 0x44, 0xd9, 0x48, 0xf1, 0x52, 0x0b, 0x9a, 0x4c, 0xe6, 0x0d, 0xee, 0x6e, 0x1d, 0x19, 0x32, 0xe0, 0xc0, 0xf1, 0x4d, 0x0a, 0xf6, 0x2e, 0x30, 0x07, 0xdc, 0x1e, 0xcd, 0x05, 0x1e, 0xda, 0x29, 0x3a, 0x05, 0x37, 0x49, 0xdc, 0xdd, 0x8d, 0xcc, 0x43, 0xeb, 0x11, 0xc1, 0x36, 0x0f, 0xe8, 0x0b, 0xd5, 0xc7, 0xde, 0x47, 0xf7, 0xfb, 0x0e, 0xcd, 0x31, 0xde, 0xff, 0x1f, 0x0c, 0xd1, 0xd2, 0x18, 0x1d, 0xf2, 0x18, 0x27, 0xbe, 0xec, 0x0f, 0x1d, 0xe1, 0x04, 0xf1, 0xfa, 0xa4, 0x29, 0xfe, 0xdf, 0xfa, 0xb7, 0x15, 0x70, 0xf5, 0x9d, 0xb6, 0x69, 0xc3, 0x89, 0x1a, 0x4d, 0xae, 0xe1, 0xec, 0x1c, 0x61, 0x1d, 0xdd, 0x61, 0xd1, 0xee, 0xeb, 0xa1, 0x13, 0xee, 0xc5, 0xe0, 0x3c, 0xf5, 0x00, 0x3b, 0xf8, 0xbd, 0x1d, 0x0c, 0x13, 0xed, 0xe4, 0xdc, 0xe4, 0x87, 0x5a, 0x45, 0xfc, 0xcf, 0xe9, 0x4d, 0x44, 0x39, 0xed, 0x37, 0xa7, 0xc7, 0xfc, 0xd2, 0x43, 0x03, 0x11, 0x13, 0x17, 0x27, 0xbf, 0x16, 0x30, 0xaf, 0x13, 0xf7, 0x25, 0xc9, 0xcf, 0xe8, 0x77, 0x8b, 0x29, 0xd1, 0x1b, 0x32, 0xed, 0xeb, 0xa9, 0x4b, 0x01, 0x37, 0xab, 0x3f, 0xf3, 0xea, 0xca, 0x05, 0x15, 0x22, 0xf7, 0x20, 0xe8, 0x08, 0x5c, 0x2e, 0x07, 0x08, 0xea, 0xd9, 0xe1, 0xf0, 0xda, 0x06, 0xd3, 0x0a, 0x0e, 0x2f, 0xdf, 0x17, 0x15, 0xc4, 0x13, 0x27, 0xd7, 0xec, 0xac, 0xe8, 0x35, 0xbc, 0xf4, 0x3a, 0x0c, 0x20, 0xfd, 0x1d, 0xf8, 0x01, 0xe2, 0x0f, 0xfa, 0xa5, 0xd1, 0xf1, 0xdf, 0x0d, 0x05, 0x07, 0xf9, 0x0d, 0xd9, 0x03, 0x3a, 0xcf, 0x11, 0x07, 0x2d, 0x4f, 0xfe, 0xdd, 0x3f, 0xeb, 0x1f, 0x33, 0xf5, 0x0e, 0xc5, 0xd3, 0x41, 0xee, 0xd9, 0x55, 0x0c, 0x03, 0x54, 0xcc, 0x26, 0xd6, 0xc8, 0xe0, 0x17, 0xee, 0xf4, 0xe7, 0x28, 0xba, 0xd6, 0x2a, 0xf4, 0xf8, 0xe5, 0x24, 0x05, 0x1c, 0x02, 0x25, 0xc6, 0x37, 0xc7, 0x2a, 0x24, 0x1c, 0xbd, 0x03, 0xda, 0x08, 0x2d, 0xe5, 0x10, 0x01, 0xcd, 0xf8, 0x36, 0x35, 0xd8, 0xd7, 0x0c, 0xc4, 0xd9, 0xfb, 0xe0, 0xef, 0xc8, 0x23, 0x22, 0x23, 0x2c, 0x21, 0xf2, 0x27, 0xee, 0x10, 0x54, 0xb0, 0x06, 0x09, 0x26, 0xec, 0x06, 0xfe, 0xea, 0xbe, 0x37, 0xcb, 0x0d, 0x10, 0xfc, 0x3e, 0x7f, 0xf1, 0x10, 0x06, 0x04, 0x3a, 0x08, 0xcd, 0x16, 0x23, 0xf7, 0xdb, 0x22, 0x11, 0xe9, 0xcd, 0x6d, 0x1f, 0x0b, 0x54, 0x27, 0xfb, 0x3a, 0xeb, 0xf1, 0x0e, 0xb5, 0xd3, 0xe5, 0xe8, 0xfc, 0xdd, 0x0b, 0xd0, 0xd6, 0x2f, 0xf2, 0xd2, 0xb2, 0x1d, 0xf3, 0xf8, 0x30, 0x1c, 0xda, 0xd8, 0xd3, 0x24, 0x1e, 0xf3, 0x05, 0x44, 0x12, 0xe0, 0x00, 0x2a, 0xee, 0x05, 0x00, 0xf8, 0x37, 0x05, 0xc5, 0xcc, 0x46, 0xdc, 0xe9, 0xef, 0x00, 0x40, 0xcd, 0xd8, 0x11, 0xe9, 0x20, 0x37, 0xca, 0xfd, 0x3c, 0xf0, 0x0e, 0xfc, 0x3c, 0x18, 0xf2, 0xa6, 0xd9, 0xfd, 0xc2, 0x17, 0xf5, 0x22, 0x3e, 0x25, 0xa2, 0xe5, 0x52, 0xd5, 0xf3, 0x21, 0x0f, 0x24, 0xf4, 0xd0, 0x26, 0x4b, 0xfb, 0x2e, 0xf2, 0x1d, 0x23, 0x27, 0x78, 0x12, 0xce, 0x16, 0x1f, 0x07, 0x1d, 0xfa, 0x0c, 0xc9, 0xc9, 0xd4, 0x1a, 0x31, 0xd5, 0xe6, 0x48, 0xe0, 0xd8, 0x46, 0xcf, 0xda, 0xff, 0x04, 0x27, 0xf8, 0x02, 0x1f, 0xbb, 0xdf, 0x39, 0xde, 0xfb, 0x3c, 0x0c, 0xdb, 0xb5, 0x08, 0xcc, 0x9b, 0x21, 0x4d, 0xd2, 0x0a, 0xea, 0x21, 0x4b, 0xf4, 0xa5, 0xaa, 0x1d, 0x0f, 0x05, 0xe5, 0x1b, 0xfa, 0x07, 0x12, 0xb2, 0x53, 0xee, 0xbe, 0xd2, 0x9f, 0xfc, 0x4e, 0x0a, 0x03, 0xe6, 0x24, 0x17, 0xe5, 0x16, 0x29, 0x1a, 0x0c, 0xe4, 0xcf, 0x30, 0x6d, 0xd2, 0xa9, 0x0b, 0x00, 0xe9, 0xe2, 0xcc, 0x27, 0xff, 0xcd, 0x1d, 0x32, 0xbd, 0xfc, 0x10, 0x1f, 0xe6, 0x1a, 0x34, 0x12, 0xf8, 0x29, 0xfe, 0x10, 0x18, 0x5b, 0x37, 0x34, 0x2e, 0x3a, 0x1e, 0x07, 0x05, 0x02, 0xb6, 0x1f, 0x23, 0x35, 0x04, 0xc7, 0x4c, 0xe2, 0xb9, 0xd0, 0xdb, 0xf9, 0x34, 0x21, 0x35, 0x29, 0xcf, 0x03, 0xee, 0x05, 0x12, 0xdb, 0x43, 0x40, 0xdc, 0x4c, 0xf4, 0xd6, 0x08, 0x46, 0xbc, 0x02, 0xb6, 0xdf, 0x0b, 0x21, 0x1b, 0xf2, 0xfc, 0xe6, 0x10, 0x31, 0xb5, 0xec, 0x23, 0x9d, 0x3f, 0x22, 0x07, 0xc7, 0xd0, 0x1f, 0xca, 0xf1, 0x04, 0x2e, 0x1c, 0x29, 0xda, 0x1a, 0x42, 0x42, 0x8e, 0xb2, 0xf0, 0xb4, 0x13, 0x3a, 0x0b, 0x19, 0x14, 0xfc, 0xeb, 0x55, 0x9b, 0x4b, 0x1e, 0xd1, 0xe0, 0x27, 0x20, 0xda, 0xa3, 0xfe, 0x00, 0x48, 0xed, 0x08, 0xf9, 0x18, 0xda, 0x18, 0x14, 0x08, 0xe4, 0xfb, 0xde, 0xef, 0x16, 0xde, 0x0c, 0xc8, 0x5c, 0xe8, 0x26, 0xde, 0xb5, 0xd4, 0x43, 0xc2, 0x01, 0x2b, 0x27, 0x9e, 0xf1, 0x16, 0xb7, 0xa3, 0x43, 0x01, 0xc6, 0x24, 0xe9, 0x18, 0x13, 0x07, 0xb8, 0xf9, 0x0a, 0xe4, 0xdf, 0x24, 0x08, 0x3a, 0x1b, 0xe7, 0xef, 0x41, 0xde, 0xe7, 0x04, 0xe6, 0xfe, 0x3f, 0x0e, 0xde, 0xe2, 0x5e, 0x1d, 0xb8, 0x3c, 0x43, 0x10, 0xf7, 0x39, 0x0b, 0x3b, 0x19, 0xd1, 0xdc, 0xea, 0xe1, 0x3b, 0xfa, 0x20, 0x0a, 0xc5, 0xe6, 0x00, 0xfd, 0x90, 0x10, 0x41, 0x01, 0xd2, 0xfc, 0xff, 0xc5, 0xcd, 0x24, 0x34, 0x71, 0xc8, 0x3b, 0xfc, 0x39, 0xfc, 0x00, 0x09, 0x4e, 0xf1, 0xd4, 0xf3, 0x24, 0xd4, 0x29, 0x1e, 0xfe, 0x7f, 0xe7, 0x0e, 0xc0, 0xec, 0xe5, 0x45, 0x51, 0x1e, 0x19, 0xc0, 0x05, 0x39, 0x34, 0xd9, 0x44, 0xf2, 0x08, 0xf3, 0x5f, 0xf6, 0x01, 0xff, 0xe2, 0x33, 0x16, 0xd3, 0x39, 0x43, 0xfb, 0x3b, 0xdd, 0xde, 0x96, 0x15, 0xca, 0xac, 0xeb, 0xa9, 0x24, 0x10, 0x5c, 0x1f, 0xb4, 0xd1, 0x17, 0x1d, 0x03, 0x24, 0xcd, 0x0a, 0x7f, 0x20, 0xa1, 0xc8, 0xbf, 0x09, 0x14, 0x08, 0x2f, 0xc3, 0x0e, 0xdc, 0x0c, 0xf6, 0xa2, 0xba, 0x19, 0x20, 0x0c, 0x26, 0x1e, 0x00, 0xd8, 0x10, 0x02, 0x37, 0xc6, 0xd5, 0x29, 0xee, 0xe8, 0xcb, 0x07, 0xcb, 0xa8, 0xb1, 0xd3, 0x13, 0xe6, 0x0a, 0x58, 0x2e, 0xc7, 0x00, 0x2d, 0x23, 0x1c, 0xca, 0xff, 0xfd, 0x32, 0x2c, 0x4c, 0xeb, 0x15, 0xf1, 0x07, 0x1d, 0xd7, 0xe1, 0x4b, 0x3d, 0x1c, 0xd4, 0x49, 0xdb, 0x9a, 0x18, 0xfb, 0xca, 0x38, 0xdd, 0x01, 0xdb, 0xf2, 0xd9, 0x0d, 0x09, 0xc8, 0xb8, 0x1b, 0x11, 0xd8, 0x07, 0xd8, 0x01, 0x50, 0xe2, 0xbc, 0xb9, 0xe0, 0xe0, 0x3b, 0xe3, 0x08, 0x30, 0x30, 0xc3, 0xff, 0xfa, 0x0d, 0x0d, 0x3e, 0x11, 0x42, 0x2e, 0xfc, 0xe0, 0x35, 0xd9, 0x8b, 0xbd, 0xcd, 0xfb, 0xe8, 0xf0, 0x2a, 0x15, 0xbe, 0xf5, 0xa5, 0xe7, 0xaa, 0x22, 0x0b, 0x04, 0x1c, 0x30, 0x48, 0x00, 0x1b, 0x07, 0xfb, 0x53, 0x17, 0x28, 0x61, 0xef, 0xc5, 0x34, 0xfa, 0xe0, 0x36, 0xd8, 0xf8, 0x55, 0x54, 0x1a, 0x04, 0xda, 0x21, 0xd5, 0xcf, 0x0f, 0x0d, 0xef, 0xe4, 0xd8, 0x20, 0xf6, 0x48, 0x13, 0xf4, 0xb1, 0xc5, 0x1c, 0x04, 0xf0, 0xfc, 0x25, 0xff, 0x0b, 0x41, 0x19, 0xa7, 0x0c, 0xe1, 0xca, 0x12, 0xcc, 0x05, 0x38, 0x25, 0xfb, 0xc4, 0xd5, 0x01, 0xea, 0x15, 0x02, 0x2a, 0x23, 0x5a, 0x09, 0xe0, 0xf7, 0xac, 0xfe, 0x0b, 0x13, 0x27, 0xf1, 0x11, 0xae, 0xf9, 0x17, 0x90, 0xf0, 0x10, 0xf4, 0xf9, 0xc9, 0xe3, 0xfb, 0xed, 0x09, 0xfd, 0x00, 0xb8, 0xef, 0x4b, 0xd0, 0xbc, 0xff, 0x2e, 0x02, 0xb6, 0xd6, 0xd0, 0x4d, 0x03, 0xcc, 0x6b, 0x2d, 0x23, 0xec, 0xf0, 0xc9, 0x0c, 0xc7, 0xc8, 0x25, 0x11, 0x19, 0x0c, 0x20, 0x46, 0xba, 0xee, 0xdf, 0x1a, 0xda, 0x3d, 0x14, 0xdc, 0xb9, 0x55, 0xc9, 0xb7, 0xc9, 0xee, 0xe3, 0x2a, 0x02, 0xf7, 0x0c, 0xf2, 0xf0, 0x26, 0xe5, 0xbd, 0xe6, 0x0d, 0x13, 0x56, 0xb6, 0x19, 0xee, 0x22, 0xb0, 0xdb, 0x24, 0xf9, 0xf9, 0xf9, 0xfa, 0x01, 0x0d, 0x73, 0xe3, 0xea, 0xe7, 0xcd, 0xec, 0x52, 0xdd, 0x18, 0xaf, 0x03, 0xf1, 0x38, 0xb6, 0xff, 0xc9, 0xef, 0x1c, 0x57, 0xd5, 0xea, 0xe9, 0xd6, 0xc6, 0xd5, 0x0a, 0xb9, 0x2e, 0x25, 0x40, 0xeb, 0x04, 0x10, 0xfa, 0x0a, 0xbe, 0x16, 0xd1, 0x18, 0xf3, 0x53, 0xdd, 0x1e, 0x2b, 0x65, 0xec, 0x1e, 0x17, 0xa9, 0x1f, 0x4f, 0x02, 0x03, 0x0c, 0x0e, 0xc2, 0x16, 0xfa, 0xf4, 0xcc, 0xf1, 0x0a, 0xeb, 0x0f, 0x7f, 0xb7, 0xf6, 0x00, 0xaf, 0xd1, 0x3e, 0xb1, 0x3e, 0xd0, 0xd6, 0x0a, 0x38, 0x0d, 0xfb, 0xb3, 0x2e, 0xf5, 0x27, 0xe5, 0xe4, 0xe7, 0x11, 0xe5, 0xd9, 0xf7, 0x28, 0xcd, 0x60, 0x43, 0xd7, 0xd5, 0x37, 0xcc, 0xd0, 0xcb, 0xb9, 0xc7, 0x35, 0xec, 0x22, 0x18, 0xff, 0x1e, 0x3d, 0x13, 0x9e, 0x04, 0x21, 0x12, 0x01, 0x08, 0x17, 0xb6, 0xb3, 0x84, 0xc4, 0xd5, 0xe0, 0x15, 0x2c, 0x45, 0xfc, 0x1f, 0xea, 0x33, 0xfa, 0x22, 0xf1, 0x00, 0xef, 0x11, 0x1d, 0xf4, 0xe7, 0xc1, 0x24, 0x09, 0xde, 0x03, 0x17, 0x05, 0x34, 0x1e, 0x13, 0x21, 0x12, 0xa7, 0xd3, 0x2a, 0x02, 0xee, 0x30, 0xdb, 0x10, 0xda, 0x73, 0xd7, 0xd1, 0xb3, 0xc5, 0xb5, 0x3d, 0xf0, 0x1b, 0x1e, 0xd5, 0x38, 0x15, 0xd1, 0xb7, 0xcf, 0x03, 0xdd, 0x45, 0xbc, 0xd7, 0x0d, 0x3e, 0xcf, 0xe5, 0x16, 0x01, 0xcf, 0x1c, 0xe7, 0xfb, 0xc1, 0x2c, 0xd9, 0x18, 0x13, 0xea, 0xe5, 0x18, 0xf5, 0x36, 0xe8, 0xdb, 0xdb, 0xf5, 0x03, 0xfb, 0xd7, 0x16, 0x02, 0x56, 0xbc, 0xe8, 0xb3, 0xc4, 0xd5, 0xc0, 0xf0, 0xb1, 0x03, 0x1b, 0x27, 0xd8, 0x14, 0x17, 0x0d, 0xee, 0xd1, 0x3c, 0x29, 0x01, 0x00, 0x31, 0xe3, 0xf0, 0x21, 0x1e, 0x0b, 0x31, 0x27, 0xe9, 0x23, 0xf4, 0xfe, 0x2b, 0xf4, 0xe1, 0xff, 0x28, 0x15, 0x41, 0xec, 0xe0, 0x29, 0xf0, 0xf6, 0x04, 0x16, 0x17, 0xfb, 0x33, 0xe6, 0xf2, 0x39, 0x31, 0xff, 0xed, 0xee, 0xe8, 0xeb, 0x26, 0xc3, 0x16, 0x1d, 0x3f, 0xf9, 0x25, 0xda, 0xd2, 0xef, 0x07, 0x18, 0x34, 0x0d, 0xe7, 0x7f, 0x0a, 0xdc, 0xf8, 0xfb, 0x42, 0x07, 0xea, 0xd7, 0x35, 0xfa, 0xc7, 0xb5, 0x15, 0x0a, 0xfd, 0x16, 0x10, 0xd8, 0xd3, 0x4b, 0x0c, 0x21, 0x19, 0x0e, 0xc2, 0x52, 0xcf, 0xca, 0x37, 0xf0, 0xcc, 0x03, 0x01, 0x16, 0x00, 0xf7, 0x2a, 0x53, 0x16, 0x1f, 0x11, 0x13, 0xab, 0x09, 0x1f, 0xf9, 0xc5, 0x25, 0x1e, 0xe9, 0xd2, 0xdd, 0x41, 0x0c, 0xfa, 0xf6, 0x03, 0xf8, 0xe9, 0xf9, 0x1a, 0x3a, 0x1c, 0x1f, 0xdb, 0xbc, 0xf0, 0xfc, 0x4b, 0x32, 0x53, 0xf8, 0x02, 0xef, 0x2e, 0xf4, 0xe1, 0xe5, 0x09, 0xfe, 0xef, 0xfa, 0xff, 0x01, 0xe2, 0xe0, 0x1a, 0x2a, 0xee, 0x1e, 0xeb, 0xf5, 0xe3, 0xec, 0x15, 0x22, 0x05, 0xd4, 0x3e, 0xe0, 0xff, 0x1d, 0x09, 0xf0, 0x14, 0x01, 0x02, 0xc3, 0xea, 0xf0, 0x02, 0xf0, 0x1b, 0xd4, 0xda, 0x2a, 0xfd, 0x55, 0x20, 0xd9, 0x1a, 0x7a, 0xd7, 0xf3, 0x20, 0x09, 0x12, 0x33, 0x1c, 0x2d, 0xf9, 0x07, 0x17, 0x02, 0x31, 0x3a, 0x32, 0x1f, 0xce, 0xfd, 0xec, 0x14, 0xb8, 0x02, 0x23, 0xce, 0xff, 0x2b, 0x03, 0x00, 0xd7, 0xc1, 0xe5, 0x0b, 0xe1, 0xec, 0x28, 0x1e, 0x15, 0x22, 0x1f, 0xcc, 0xe4, 0xf2, 0x2b, 0x55, 0xef, 0xbb, 0x0e, 0x00, 0x16, 0xe4, 0x06, 0x1c, 0x0c, 0xee, 0xe0, 0xe1, 0xd5, 0x0f, 0x3f, 0x1f, 0xf0, 0xe3, 0xf0, 0x1f, 0xe8, 0xff, 0x24, 0xef, 0xe8, 0x67, 0x1d, 0x2b, 0x0a, 0x16, 0xee, 0xfe, 0x10, 0x08, 0x0e, 0x3a, 0xc9, 0xd0, 0x24, 0x0b, 0xeb, 0xeb, 0x01, 0xfd, 0x21, 0x17, 0xeb, 0x31, 0xf1, 0xeb, 0x02, 0x5a, 0x01, 0x1f, 0x30, 0xd9, 0xcf, 0x51, 0xd9, 0x15, 0xf0, 0xf5, 0xd4, 0x4f, 0x27, 0x29, 0x57, 0x06, 0xf7, 0xcf, 0xec, 0x29, 0xa4, 0xce, 0xcb, 0xe2, 0x03, 0x11, 0x08, 0xa1, 0x28, 0x17, 0xf5, 0xea, 0x50, 0xf2, 0xfe, 0x20, 0x12, 0xc9, 0xc5, 0x0c, 0x29, 0xf2, 0xf2, 0xaf, 0xb9, 0x57, 0x11, 0xd0, 0x29, 0xf6, 0xc5, 0x5b, 0x6c, 0xc9, 0x12, 0xb2, 0xd2, 0x26, 0x54, 0xc9, 0x49, 0x19, 0xdb, 0xbf, 0x22, 0x58, 0xb2, 0xd6, 0xf4, 0x04, 0xb2, 0x0a, 0x02, 0x05, 0xcc, 0xc2, 0x0d, 0x34, 0x1c, 0x1f, 0xff, 0xed, 0xb8, 0x11, 0x4b, 0xf3, 0x10, 0xb1, 0x3f, 0x15, 0xfe, 0x19, 0xcc, 0x32, 0xca, 0xd8, 0x39, 0xf5, 0xb7, 0x0a, 0xde, 0xe9, 0x0d, 0x44, 0xe7, 0xde, 0x21, 0xf2, 0x02, 0xed, 0xe9, 0x32, 0xb1, 0xec, 0xb9, 0xe2, 0x57, 0xe9, 0x12, 0xdd, 0x18, 0x6d, 0x06, 0xd8, 0x52, 0xe9, 0x09, 0xbf, 0x03, 0xe4, 0x0e, 0xde, 0xfb, 0x48, 0xf9, 0x19, 0x3b, 0xad, 0xf2, 0x99, 0xdf, 0x38, 0xfa, 0x3f, 0xd3, 0xfa, 0xdf, 0x43, 0x1f, 0xc8, 0x08, 0xb7, 0xd8, 0x34, 0xe6, 0x21, 0x1c, 0xf9, 0xe4, 0xbd, 0xfd, 0xef, 0x07, 0xfb, 0x17, 0x09, 0x2b, 0x43, 0x16, 0xc8, 0x19, 0x1a, 0xdb, 0x62, 0xf2, 0xf1, 0xf0, 0x35, 0x11, 0xd1, 0x26, 0xde, 0xe4, 0xd6, 0x2e, 0x4e, 0x08, 0xd8, 0x0b, 0xfd, 0x36, 0xbc, 0xd9, 0x27, 0xc8, 0x09, 0xde, 0x1d, 0x2e, 0x13, 0x1c, 0x00, 0xd2, 0xfb, 0xfc, 0x40, 0xbf, 0xdd, 0xfe, 0x41, 0xf4, 0x20, 0x73, 0x0b, 0x0b, 0xc3, 0x3a, 0x31, 0x22, 0xd5, 0x09, 0x2e, 0xe6, 0xe2, 0x0d, 0x39, 0xf5, 0x33, 0x2b, 0xda, 0xb8, 0x00, 0x1a, 0xf3, 0xc0, 0xfb, 0xd5, 0x7f, 0x0e, 0xe7, 0xdd, 0xc8, 0xab, 0x4b, 0x48, 0xee, 0x03, 0x17, 0xa1, 0x32, 0x49, 0xe1, 0xdb, 0x27, 0xc9, 0xec, 0x0f, 0xfe, 0xd1, 0xeb, 0xfd, 0xc1, 0x19, 0x4e, 0x11, 0x0b, 0x04, 0xdc, 0xef, 0x69, 0xc7, 0xff, 0xff, 0xbd, 0x0b, 0xfd, 0x23, 0x10, 0xe7, 0x11, 0x30, 0xfd, 0xdc, 0xcf, 0xe1, 0xeb, 0x3f, 0xdb, 0x13, 0xda, 0x14, 0xd9, 0x06, 0x22, 0xef, 0x4c, 0xef, 0xd3, 0xd1, 0xb6, 0x21, 0x40, 0xd7, 0x37, 0xe2, 0xcb, 0x06, 0xe5, 0x3b, 0x16, 0xe7, 0xd1, 0x06, 0x53, 0x62, 0x1d, 0x0e, 0x58, 0x06, 0x2c, 0x04, 0xba, 0xb3, 0xd4, 0x75, 0xd9, 0xd8, 0x06, 0x1c, 0x0d, 0xc6, 0xb4, 0x4d, 0x3a, 0xbb, 0x81, 0x5a, 0xa7, 0xe6, 0x37, 0xbd, 0x11, 0xf2, 0x27, 0xa4, 0xe4, 0x1e, 0x01, 0xdf, 0x2b, 0x8c, 0xcc, 0xc6, 0x2d, 0x9c, 0xf4, 0x6d, 0xe3, 0x10, 0x03, 0xd2, 0xf0, 0x28, 0xac, 0x38, 0xe9, 0xf6, 0x08, 0x4f, 0xcb, 0x5e, 0xdf, 0x14, 0xe0, 0xf1, 0x25, 0x1a, 0xc3, 0xde, 0xd6, 0xab, 0x29, 0xe6, 0x2f, 0xb7, 0xdc, 0x20, 0x4b, 0x13, 0xe7, 0xa7, 0xee, 0x15, 0x4d, 0xcf, 0xca, 0xf0, 0xe0, 0x0e, 0xc1, 0x19, 0xec, 0x29, 0xc8, 0x24, 0xc3, 0xfc, 0xf1, 0x20, 0xbf, 0x40, 0x4b, 0xda, 0x64, 0xd8, 0xa6, 0x0d, 0x07, 0xaf, 0x25, 0x6a, 0x00, 0x00, 0xb6, 0x23, 0x09, 0x22, 0xa3, 0x67, 0xf9, 0xf9, 0xdc, 0x03, 0xa3, 0x3c, 0x0f, 0xf2, 0xdd, 0xcf, 0xe5, 0x10, 0xca, 0x0b, 0xd4, 0x10, 0x07, 0xe6, 0xb3, 0x8e, 0xac, 0xac, 0xe5, 0xea, 0x1f, 0xa7, 0xdd, 0x22, 0x32, 0xe6, 0x22, 0x06, 0x0a, 0xfa, 0xfc, 0x52, 0xd6, 0x66, 0x10, 0x26, 0xbf, 0x4e, 0xe8, 0x05, 0x0a, 0x52, 0xbd, 0xff, 0xab, 0xe8, 0x20, 0xbf, 0xbd, 0x03, 0x41, 0x30, 0x14, 0x07, 0x0f, 0xfd, 0x11, 0xf9, 0xef, 0x49, 0x67, 0x82, 0x09, 0x74, 0xa8, 0x24, 0x16, 0x11, 0x16, 0x14, 0x3d, 0x11, 0x12, 0x58, 0xdf, 0xd5, 0x29, 0xd7, 0xbd, 0xe0, 0x0a, 0x08, 0xc8, 0xeb, 0xc8, 0xef, 0xb6, 0xce, 0xf0, 0x16, 0xd5, 0xe9, 0xd6, 0xe1, 0xe5, 0xf0, 0xf2, 0x27, 0xc1, 0x31, 0xe7, 0x33, 0xf7, 0xa1, 0xee, 0xef, 0xd5, 0xdf, 0xd4, 0x19, 0xee, 0xfc, 0x1f, 0xf4, 0xfe, 0x6b, 0x2e, 0xba, 0x18, 0x40, 0xf9, 0x12, 0xd2, 0x17, 0x1d, 0xbd, 0xb8, 0x08, 0x26, 0x1d, 0x15, 0x31, 0xe8, 0xf9, 0x13, 0xd8, 0xda, 0x51, 0xc1, 0xb9, 0xe0, 0x2a, 0xfd, 0xb3, 0xf0, 0xab, 0x13, 0xd6, 0x53, 0xef, 0xa0, 0x26, 0x2d, 0x3e, 0xe8, 0xf7, 0xd8, 0xc8, 0xb4, 0x4e, 0x39, 0x30, 0xcf, 0x0a, 0xfa, 0xe1, 0x0b, 0xcc, 0xb1, 0x3d, 0xdf, 0xe4, 0x05, 0x38, 0x0a, 0xdd, 0xbf, 0xe0, 0xd8, 0x4e, 0x3a, 0xc1, 0x4c, 0x4e, 0x8a, 0xb0, 0xff, 0xb3, 0x01, 0xb7, 0xb3, 0xe5, 0xb9, 0xdf, 0x03, 0x06, 0x2b, 0x2b, 0x16, 0xd2, 0x33, 0x22, 0x25, 0xb7, 0xf1, 0x23, 0xb0, 0xad, 0xc4, 0xf0, 0xd2, 0x03, 0x40, 0x0e, 0xd4, 0x6b, 0xd2, 0xdd, 0xc7, 0xf4, 0xe0, 0x06, 0xaf, 0x45, 0x99, 0x06, 0x09, 0x09, 0x18, 0x0d, 0xdd, 0x35, 0xe1, 0x59, 0x14, 0x26, 0xd0, 0x22, 0x1b, 0x15, 0xe1, 0xa6, 0x01, 0xf0, 0x0a, 0xd8, 0xfa, 0xee, 0xbe, 0xf9, 0xaa, 0x27, 0x38, 0x82, 0xff, 0x46, 0xb0, 0xb8, 0x11, 0x69, 0x15, 0x0d, 0xe5, 0x1f, 0xf3, 0xff, 0x1d, 0xe5, 0xc3, 0x12, 0x0e, 0xb8, 0xe4, 0xf3, 0xbc, 0x3b, 